[PAD]	0
[CLS]	1
[SEP]	2
[MASK]	3
，	4
的	5
、	6
一	7
人	8
有	9
是	10
在	11
中	12
为	13
和	14
了	15
不	16
年	17
学	18
大	19
国	20
生	21
以	22
“	23
”	24
作	25
业	26
个	27
上	28
用	29
,	30
地	31
会	32
成	33
发	34
工	35
时	36
于	37
理	38
出	39
行	40
要	41
.	42
等	43
他	44
到	45
之	46
这	47
可	48
后	49
家	50
对	51
能	52
公	53
与	54
》	55
《	56
主	57
方	58
分	59
经	60
来	61
全	62
其	63
部	64
多	65
产	66
自	67
文	68
高	69
动	70
进	71
法	72
化	73
：	74
我	75
面	76
）	77
（	78
实	79
教	80
建	81
体	82
而	83
长	84
子	85
下	86
现	87
开	88
本	89
力	90
定	91
性	92
过	93
设	94
合	95
小	96
同	97
机	98
市	99
品	100
水	101
新	102
内	103
事	104
也	105
种	106
及	107
制	108
入	109
所	110
心	111
务	112
就	113
管	114
们	115
得	116
展	117
重	118
民	119
加	120
区	121
物	122
者	123
通	124
天	125
政	126
三	127
电	128
关	129
度	130
第	131
名	132
术	133
最	134
系	135
月	136
外	137
资	138
日	139
代	140
员	141
如	142
间	143
位	144
并	145
书	146
科	147
村	148
应	149
量	150
道	151
前	152
当	153
无	154
里	155
相	156
平	157
从	158
计	159
提	160
保	161
任	162
程	163
技	164
都	165
研	166
十	167
基	168
特	169
好	170
被	171
或	172
目	173
将	174
使	175
山	176
二	177
说	178
数	179
点	180
明	181
情	182
元	183
着	184
收	185
组	186
然	187
美	188
各	189
由	190
场	191
金	192
形	193
农	194
期	195
因	196
表	197
此	198
色	199
起	200
还	201
立	202
世	203
安	204
活	205
专	206
质	207
1	208
规	209
社	210
万	211
信	212
西	213
统	214
结	215
路	216
利	217
次	218
南	219
式	220
意	221
级	222
常	223
师	224
校	225
你	226
育	227
果	228
究	229
司	230
服	231
门	232
海	233
导	234
流	235
项	236
她	237
总	238
处	239
两	240
传	241
东	242
正	243
省	244
院	245
户	246
手	247
具	248
2	249
原	250
强	251
北	252
向	253
先	254
但	255
米	256
城	257
企	258
件	259
风	260
军	261
身	262
更	263
知	264
已	265
气	266
战	267
至	268
单	269
口	270
集	271
创	272
解	273
四	274
标	275
交	276
比	277
商	278
论	279
界	280
题	281
变	282
花	283
3	284
改	285
类	286
运	287
指	288
型	289
调	290
女	291
神	292
接	293
造	294
受	295
广	296
只	297
委	298
去	299
共	300
治	301
达	302
持	303
条	304
网	305
头	306
构	307
县	308
些	309
该	310
又	311
那	312
想	313
样	314
办	315
济	316
5	317
格	318
责	319
车	320
很	321
施	322
求	323
己	324
光	325
精	326
林	327
完	328
爱	329
线	330
参	331
少	332
积	333
清	334
看	335
优	336
报	337
王	338
直	339
没	340
每	341
据	342
游	343
效	344
感	345
五	346
影	347
别	348
获	349
领	350
称	351
选	352
供	353
乐	354
老	355
么	356
台	357
问	358
划	359
带	360
器	361
源	362
织	363
放	364
深	365
备	366
视	367
白	368
功	369
取	370
装	371
营	372
见	373
记	374
环	375
队	376
节	377
准	378
石	379
它	380
回	381
历	382
负	383
真	384
增	385
医	386
联	387
做	388
职	389
容	390
士	391
包	392
义	393
观	394
团	395
病	396
4	397
府	398
息	399
则	400
考	401
料	402
华	403
州	404
语	405
证	406
整	407
让	408
江	409
史	410
空	411
验	412
需	413
支	414
命	415
给	416
离	417
认	418
艺	419
较	420
土	421
古	422
养	423
才	424
境	425
推	426
把	427
均	428
图	429
际	430
斯	431
近	432
片	433
局	434
修	435
字	436
德	437
权	438
步	439
始	440
复	441
转	442
协	443
即	444
打	445
画	446
投	447
决	448
何	449
约	450
反	451
quot	452
费	453
议	454
护	455
极	456
河	457
房	458
查	459
布	460
思	461
干	462
价	463
儿	464
非	465
马	466
党	467
奖	468
模	469
故	470
编	471
音	472
范	473
识	474
率	475
存	476
引	477
客	478
属	479
评	480
采	481
尔	482
配	483
镇	484
室	485
再	486
案	487
监	488
习	489
注	490
根	491
克	492
演	493
食	494
族	495
示	496
球	497
状	498
青	499
号	500
张	501
百	502
素	503
首	504
易	505
热	506
阳	507
今	508
园	509
防	510
版	511
太	512
乡	513
英	514
6	515
材	516
列	517
便	518
写	519
住	520
置	521
层	522
助	523
确	524
试	525
难	526
承	527
象	528
居	529
10	530
黄	531
快	532
断	533
维	534
却	535
红	536
速	537
连	538
众	539
0	540
细	541
态	542
话	543
周	544
言	545
药	546
培	547
血	548
亩	549
龙	550
越	551
值	552
几	553
边	554
读	555
未	556
曾	557
测	558
算	559
京	560
景	561
余	562
站	563
低	564
温	565
消	566
必	567
切	568
依	569
随	570
且	571
志	572
卫	573
域	574
照	575
许	576
限	577
著	578
销	579
落	580
足	581
适	582
争	583
策	584
8	585
控	586
武	587
按	588
7	589
初	590
角	591
核	592
死	593
检	594
富	595
满	596
显	597
审	598
除	599
致	600
亲	601
占	602
失	603
星	604
章	605
善	606
续	607
千	608
叶	609
火	610
副	611
告	612
段	613
什	614
声	615
终	616
况	617
走	618
木	619
益	620
戏	621
独	622
纪	623
植	624
财	625
群	626
六	627
赛	628
远	629
拉	630
亚	631
密	632
排	633
超	634
像	635
课	636
围	637
往	638
响	639
击	640
疗	641
念	642
八	643
云	644
险	645
律	646
请	647
革	648
诗	649
批	650
底	651
压	652
双	653
男	654
训	655
例	656
汉	657
升	658
拥	659
势	660
酒	661
眼	662
官	663
牌	664
油	665
曲	666
友	667
望	668
黑	669
歌	670
筑	671
础	672
香	673
仅	674
担	675
括	676
湖	677
严	678
秀	679
剧	680
九	681
举	682
执	683
充	684
兴	685
督	686
博	687
草	688
般	689
李	690
健	691
喜	692
授	693
普	694
预	695
灵	696
突	697
良	698
款	699
罗	700
9	701
微	702
七	703
录	704
朝	705
飞	706
宝	707
令	708
轻	709
劳	710
距	711
异	712
简	713
兵	714
树	715
序	716
候	717
含	718
福	719
尽	720
留	721
20	722
丰	723
旅	724
征	725
临	726
破	727
移	728
篇	729
抗	730
典	731
端	732
苏	733
奇	734
止	735
康	736
店	737
毛	738
觉	739
春	740
售	741
络	742
降	743
板	744
坚	745
母	746
讲	747
早	748
印	749
略	750
孩	751
夫	752
藏	753
铁	754
害	755
互	756
帝	757
田	758
融	759
皮	760
宗	761
岁	762
载	763
析	764
斗	765
须	766
伤	767
12	768
介	769
另	770
00	771
半	772
班	773
馆	774
味	775
楼	776
卡	777
射	778
述	779
杀	780
波	781
绿	782
免	783
兰	784
绝	785
刻	786
短	787
察	788
输	789
择	790
综	791
杂	792
份	793
纳	794
父	795
词	796
银	797
送	798
座	799
左	800
继	801
固	802
宣	803
厂	804
肉	805
换	806
补	807
税	808
派	809
套	810
欢	811
播	812
吸	813
圆	814
攻	815
阿	816
购	817
听	818
右	819
减	820
激	821
巴	822
背	823
够	824
遇	825
智	826
玉	827
找	828
宽	829
陈	830
练	831
追	832
毕	833
彩	834
软	835
帮	836
股	837
荣	838
托	839
予	840
佛	841
堂	842
障	843
皇	844
若	845
守	846
似	847
届	848
待	849
货	850
散	851
额	852
30	853
尚	854
穿	855
丽	856
骨	857
享	858
差	859
针	860
索	861
稳	862
宁	863
贵	864
酸	865
液	866
唐	867
操	868
探	869
玩	870
促	871
笔	872
库	873
救	874
虽	875
久	876
闻	877
顶	878
床	879
港	880
鱼	881
亿	882
登	883
11	884
永	885
毒	886
桥	887
冷	888
魔	889
秘	890
陆	891
您	892
童	893
归	894
侧	895
沙	896
染	897
封	898
紧	899
松	900
川	901
刘	902
15	903
雄	904
希	905
毫	906
卷	907
某	908
季	909
菜	910
庭	911
附	912
逐	913
夜	914
宫	915
洲	916
退	917
顾	918
尼	919
胜	920
剂	921
纯	922
舞	923
遗	924
苦	925
梦	926
挥	927
航	928
愿	929
街	930
招	931
矿	932
夏	933
盖	934
献	935
怎	936
茶	937
申	938
39	939
吧	940
脑	941
亦	942
吃	943
频	944
宋	945
央	946
威	947
厚	948
块	949
冲	950
叫	951
熟	952
礼	953
厅	954
否	955
渐	956
笑	957
钱	958
钟	959
甚	960
牛	961
丝	962
靠	963
岛	964
绍	965
盘	966
缘	967
聚	968
静	969
雨	970
氏	971
圣	972
顺	973
唱	974
刊	975
阶	976
困	977
急	978
饰	979
弹	980
庄	981
既	982
野	983
阴	984
混	985
饮	986
损	987
齐	988
末	989
错	990
轮	991
宜	992
鲜	993
兼	994
敌	995
粉	996
祖	997
延	998
100	999
钢	1000
辑	1001
欧	1002
硬	1003
甲	1004
诉	1005
册	1006
痛	1007
订	1008
缺	1009
晚	1010
衣	1011
佳	1012
脉	1013
gt	1014
盛	1015
乎	1016
拟	1017
贸	1018
扩	1019
船	1020
仪	1021
谁	1022
警	1023
50	1024
停	1025
席	1026
竞	1027
释	1028
庆	1029
汽	1030
仍	1031
掌	1032
诸	1033
仙	1034
弟	1035
吉	1036
洋	1037
奥	1038
票	1039
危	1040
架	1041
买	1042
径	1043
塔	1044
休	1045
付	1046
恶	1047
雷	1048
怀	1049
秋	1050
借	1051
巨	1052
透	1053
誉	1054
厘	1055
句	1056
跟	1057
胞	1058
婚	1059
幼	1060
烈	1061
峰	1062
寻	1063
君	1064
汇	1065
趣	1066
纸	1067
假	1068
肥	1069
患	1070
杨	1071
雅	1072
罪	1073
谓	1074
亮	1075
脱	1076
寺	1077
烟	1078
判	1079
绩	1080
乱	1081
刚	1082
摄	1083
洞	1084
践	1085
码	1086
启	1087
励	1088
呈	1089
曰	1090
呢	1091
符	1092
哥	1093
媒	1094
疾	1095
坐	1096
雪	1097
孔	1098
倒	1099
旧	1100
菌	1101
岩	1102
鼓	1103
亡	1104
访	1105
症	1106
暗	1107
湾	1108
幸	1109
池	1110
讨	1111
努	1112
露	1113
吗	1114
繁	1115
途	1116
殖	1117
败	1118
蛋	1119
握	1120
刺	1121
耕	1122
洗	1123
沉	1124
概	1125
哈	1126
泛	1127
凡	1128
残	1129
隐	1130
虫	1131
朋	1132
虚	1133
餐	1134
殊	1135
慢	1136
询	1137
蒙	1138
孙	1139
谈	1140
鲁	1141
裂	1142
贴	1143
污	1144
漫	1145
谷	1146
违	1147
泉	1148
拿	1149
森	1150
横	1151
扬	1152
键	1153
膜	1154
迁	1155
尤	1156
涉	1157
净	1158
诚	1159
折	1160
冰	1161
械	1162
拍	1163
梁	1164
沿	1165
避	1166
吴	1167
惊	1168
犯	1169
灭	1170
湿	1171
迷	1172
姓	1173
阅	1174
灯	1175
妇	1176
触	1177
冠	1178
答	1179
俗	1180
档	1181
尊	1182
谢	1183
措	1184
筹	1185
竟	1186
韩	1187
签	1188
剑	1189
鉴	1190
灾	1191
贯	1192
迹	1193
洛	1194
沟	1195
束	1196
翻	1197
巧	1198
坏	1199
弱	1200
零	1201
壁	1202
枝	1203
映	1204
恩	1205
抓	1206
屋	1207
呼	1208
脚	1209
绘	1210
40	1211
淡	1212
辖	1213
2010	1214
伊	1215
粒	1216
欲	1217
震	1218
伯	1219
私	1220
蓝	1221
甘	1222
储	1223
胡	1224
卖	1225
梅	1226
16	1227
耳	1228
疑	1229
润	1230
伴	1231
泽	1232
牧	1233
烧	1234
尾	1235
累	1236
糖	1237
怪	1238
唯	1239
莫	1240
粮	1241
柱	1242
18	1243
竹	1244
灰	1245
岸	1246
缩	1247
井	1248
伦	1249
柔	1250
盟	1251
珠	1252
丹	1253
amp	1254
皆	1255
哪	1256
迎	1257
颜	1258
衡	1259
啊	1260
塑	1261
寒	1262
13	1263
紫	1264
镜	1265
25	1266
氧	1267
误	1268
伍	1269
彻	1270
刀	1271
览	1272
炎	1273
津	1274
耐	1275
秦	1276
尖	1277
潮	1278
描	1279
浓	1280
召	1281
禁	1282
阻	1283
胶	1284
译	1285
腹	1286
泰	1287
乃	1288
盐	1289
潜	1290
鸡	1291
诺	1292
遍	1293
2000	1294
纹	1295
冬	1296
牙	1297
麻	1298
辅	1299
猪	1300
弃	1301
楚	1302
羊	1303
晋	1304
14	1305
鸟	1306
赵	1307
洁	1308
谋	1309
隆	1310
滑	1311
60	1312
2008	1313
籍	1314
臣	1315
朱	1316
泥	1317
墨	1318
辆	1319
墙	1320
浪	1321
姐	1322
赏	1323
纵	1324
2006	1325
拔	1326
倍	1327
纷	1328
摩	1329
壮	1330
苗	1331
偏	1332
塞	1333
贡	1334
仁	1335
宇	1336
卵	1337
瓦	1338
枪	1339
覆	1340
殿	1341
刑	1342
贫	1343
妈	1344
幅	1345
幕	1346
忆	1347
丁	1348
估	1349
废	1350
萨	1351
舍	1352
详	1353
旗	1354
岗	1355
洪	1356
80	1357
贝	1358
2009	1359
迅	1360
凭	1361
勇	1362
雕	1363
奏	1364
旋	1365
杰	1366
煤	1367
阵	1368
乘	1369
溪	1370
奉	1371
畜	1372
挑	1373
昌	1374
硕	1375
庙	1376
惠	1377
薄	1378
逃	1379
爆	1380
哲	1381
浙	1382
珍	1383
炼	1384
栏	1385
暴	1386
币	1387
隔	1388
吨	1389
倾	1390
嘉	1391
址	1392
陶	1393
绕	1394
诊	1395
遭	1396
桃	1397
魂	1398
兽	1399
豆	1400
闲	1401
箱	1402
拓	1403
燃	1404
裁	1405
晶	1406
掉	1407
脂	1408
溶	1409
顿	1410
肤	1411
虑	1412
鬼	1413
2007	1414
灌	1415
徐	1416
龄	1417
陵	1418
恋	1419
侵	1420
坡	1421
寿	1422
勤	1423
磨	1424
妹	1425
瑞	1426
缓	1427
轴	1428
麦	1429
羽	1430
咨	1431
凝	1432
默	1433
驻	1434
敢	1435
债	1436
17	1437
浮	1438
幻	1439
株	1440
浅	1441
敬	1442
敏	1443
陷	1444
凤	1445
坛	1446
虎	1447
乌	1448
铜	1449
御	1450
乳	1451
讯	1452
循	1453
圈	1454
肌	1455
妙	1456
奋	1457
忘	1458
闭	1459
墓	1460
21	1461
汤	1462
忠	1463
2005	1464
跨	1465
怕	1466
振	1467
宾	1468
跑	1469
屏	1470
坦	1471
粗	1472
租	1473
悲	1474
伟	1475
拜	1476
24	1477
妻	1478
赞	1479
兄	1480
宿	1481
碑	1482
貌	1483
勒	1484
罚	1485
夺	1486
偶	1487
截	1488
纤	1489
2011	1490
齿	1491
郑	1492
聘	1493
偿	1494
扶	1495
豪	1496
慧	1497
跳	1498
the	1499
疏	1500
莱	1501
腐	1502
插	1503
恐	1504
郎	1505
辞	1506
挂	1507
娘	1508
肿	1509
徒	1510
伏	1511
磁	1512
杯	1513
丛	1514
旨	1515
琴	1516
19	1517
炮	1518
醒	1519
砖	1520
替	1521
辛	1522
暖	1523
锁	1524
杜	1525
肠	1526
孤	1527
饭	1528
脸	1529
邮	1530
贷	1531
lt	1532
俄	1533
毁	1534
荷	1535
谐	1536
荒	1537
肝	1538
链	1539
2004	1540
2012	1541
尺	1542
尘	1543
援	1544
a	1545
疫	1546
崇	1547
恢	1548
扎	1549
伸	1550
幽	1551
抵	1552
胸	1553
谱	1554
舒	1555
迫	1556
200	1557
畅	1558
泡	1559
岭	1560
喷	1561
70	1562
窗	1563
捷	1564
宏	1565
肯	1566
90	1567
狂	1568
铺	1569
骑	1570
抽	1571
券	1572
俱	1573
徽	1574
胆	1575
碎	1576
邀	1577
褐	1578
斤	1579
涂	1580
赋	1581
署	1582
颗	1583
2003	1584
渠	1585
仿	1586
迪	1587
炉	1588
辉	1589
涵	1590
耗	1591
22	1592
返	1593
邻	1594
斑	1595
董	1596
魏	1597
午	1598
娱	1599
浴	1600
尿	1601
曼	1602
锅	1603
柳	1604
舰	1605
搭	1606
旁	1607
宅	1608
趋	1609
of	1610
凉	1611
赢	1612
伙	1613
爷	1614
廷	1615
戴	1616
壤	1617
奶	1618
页	1619
玄	1620
驾	1621
阔	1622
轨	1623
朗	1624
捕	1625
肾	1626
稿	1627
惯	1628
侯	1629
乙	1630
渡	1631
稍	1632
恨	1633
脏	1634
2002	1635
姆	1636
腔	1637
抱	1638
杆	1639
垂	1640
赴	1641
赶	1642
莲	1643
辽	1644
荐	1645
旦	1646
妖	1647
2013	1648
稀	1649
驱	1650
沈	1651
役	1652
晓	1653
亭	1654
仲	1655
澳	1656
500	1657
炸	1658
绪	1659
28	1660
陕	1661
and	1662
23	1663
恒	1664
堡	1665
纠	1666
仇	1667
懂	1668
焦	1669
搜	1670
s	1671
忍	1672
贤	1673
添	1674
i	1675
艾	1676
赤	1677
犹	1678
尝	1679
锦	1680
稻	1681
撰	1682
填	1683
衰	1684
栽	1685
邪	1686
粘	1687
跃	1688
桌	1689
胃	1690
悬	1691
c	1692
翼	1693
彼	1694
睡	1695
曹	1696
刷	1697
摆	1698
悉	1699
锋	1700
26	1701
摇	1702
抢	1703
乏	1704
廉	1705
鼠	1706
盾	1707
瓷	1708
抑	1709
埃	1710
邦	1711
遂	1712
寸	1713
渔	1714
祥	1715
胎	1716
牵	1717
壳	1718
甜	1719
卓	1720
瓜	1721
袭	1722
遵	1723
巡	1724
逆	1725
玛	1726
韵	1727
2001	1728
桑	1729
酷	1730
赖	1731
桂	1732
郡	1733
肃	1734
仓	1735
寄	1736
塘	1737
瘤	1738
300	1739
碳	1740
搞	1741
燕	1742
蒸	1743
允	1744
忽	1745
斜	1746
穷	1747
郁	1748
囊	1749
奔	1750
昆	1751
盆	1752
愈	1753
递	1754
1000	1755
黎	1756
祭	1757
怒	1758
辈	1759
腺	1760
滚	1761
暂	1762
郭	1763
璃	1764
踪	1765
芳	1766
碍	1767
肺	1768
狱	1769
冒	1770
阁	1771
砂	1772
35	1773
苍	1774
揭	1775
踏	1776
颇	1777
柄	1778
闪	1779
孝	1780
葡	1781
腾	1782
茎	1783
鸣	1784
撤	1785
仰	1786
伐	1787
丘	1788
於	1789
泪	1790
荡	1791
扰	1792
纲	1793
拼	1794
欣	1795
纽	1796
癌	1797
堆	1798
27	1799
菲	1800
b	1801
披	1802
挖	1803
寓	1804
履	1805
捐	1806
悟	1807
乾	1808
嘴	1809
钻	1810
拳	1811
吹	1812
柏	1813
遥	1814
抚	1815
忧	1816
赠	1817
霸	1818
艰	1819
淋	1820
猫	1821
帅	1822
奈	1823
寨	1824
滴	1825
鼻	1826
掘	1827
狗	1828
驶	1829
朴	1830
拆	1831
惜	1832
玻	1833
扣	1834
萄	1835
蔬	1836
宠	1837
2014	1838
缴	1839
赫	1840
凯	1841
滨	1842
乔	1843
腰	1844
葬	1845
孟	1846
吾	1847
枚	1848
圳	1849
忙	1850
扫	1851
杭	1852
凌	1853
1998	1854
梯	1855
丈	1856
隶	1857
1999	1858
剪	1859
盗	1860
擅	1861
疆	1862
弯	1863
携	1864
拒	1865
秒	1866
颁	1867
醇	1868
割	1869
浆	1870
姑	1871
爸	1872
螺	1873
穗	1874
缝	1875
慈	1876
喝	1877
瓶	1878
漏	1879
悠	1880
猎	1881
番	1882
孕	1883
伪	1884
漂	1885
腿	1886
吐	1887
坝	1888
滤	1889
函	1890
匀	1891
偷	1892
浩	1893
矛	1894
僧	1895
辨	1896
俊	1897
棉	1898
铸	1899
29	1900
诞	1901
丧	1902
夹	1903
to	1904
姿	1905
睛	1906
淮	1907
阀	1908
姜	1909
45	1910
尸	1911
猛	1912
1997	1913
芽	1914
账	1915
旱	1916
醉	1917
弄	1918
坊	1919
烤	1920
萧	1921
矣	1922
雾	1923
倡	1924
榜	1925
弗	1926
氨	1927
朵	1928
锡	1929
袋	1930
拨	1931
湘	1932
岳	1933
烦	1934
肩	1935
熙	1936
炭	1937
婆	1938
棋	1939
禅	1940
穴	1941
宙	1942
汗	1943
艳	1944
儒	1945
叙	1946
晨	1947
颈	1948
峡	1949
拖	1950
烂	1951
茂	1952
戒	1953
飘	1954
氛	1955
蒂	1956
撞	1957
瓣	1958
箭	1959
叛	1960
1996	1961
31	1962
鞋	1963
劲	1964
祝	1965
娜	1966
饲	1967
侍	1968
诱	1969
叹	1970
卢	1971
弥	1972
32	1973
鼎	1974
厦	1975
屈	1976
慕	1977
魅	1978
m	1979
厨	1980
嫁	1981
绵	1982
逼	1983
扮	1984
叔	1985
酶	1986
燥	1987
狼	1988
滋	1989
汁	1990
辐	1991
怨	1992
翅	1993
佩	1994
坑	1995
旬	1996
沃	1997
剩	1998
蛇	1999
颖	2000
篮	2001
锐	2002
侠	2003
匹	2004
唤	2005
熊	2006
漠	2007
迟	2008
敦	2009
雌	2010
谨	2011
婴	2012
浸	2013
磷	2014
筒	2015
2015	2016
滩	2017
埋	2018
框	2019
弘	2020
吕	2021
碰	2022
纺	2023
硫	2024
堪	2025
契	2026
蜜	2027
蓄	2028
1995	2029
阐	2030
apos	2031
傲	2032
碱	2033
晰	2034
狭	2035
撑	2036
叉	2037
卧	2038
劫	2039
闹	2040
赐	2041
邓	2042
奴	2043
溉	2044
浦	2045
蹈	2046
辣	2047
遣	2048
耀	2049
耶	2050
翠	2051
t	2052
叠	2053
迈	2054
霍	2055
碧	2056
恰	2057
脊	2058
昭	2059
摸	2060
饱	2061
赔	2062
泄	2063
哭	2064
讼	2065
逝	2066
逻	2067
廊	2068
擦	2069
渗	2070
彰	2071
you	2072
卿	2073
旺	2074
宪	2075
36	2076
顷	2077
妆	2078
陪	2079
葛	2080
仔	2081
淀	2082
翰	2083
悦	2084
穆	2085
煮	2086
辩	2087
弦	2088
in	2089
串	2090
押	2091
蚀	2092
逢	2093
贺	2094
焊	2095
煌	2096
缔	2097
惑	2098
鹿	2099
袁	2100
糊	2101
逸	2102
舟	2103
勃	2104
侦	2105
涯	2106
蔡	2107
辟	2108
涌	2109
枯	2110
痕	2111
疼	2112
莉	2113
柴	2114
1993	2115
眉	2116
1992	2117
罢	2118
催	2119
衔	2120
秉	2121
妃	2122
鸿	2123
傅	2124
400	2125
辰	2126
聪	2127
咸	2128
1994	2129
扇	2130
盈	2131
勘	2132
佐	2133
泊	2134
抛	2135
搬	2136
牢	2137
宴	2138
牲	2139
贾	2140
摘	2141
姻	2142
慎	2143
帕	2144
忌	2145
卒	2146
夕	2147
卜	2148
惟	2149
挺	2150
崖	2151
炒	2152
爵	2153
冻	2154
椒	2155
鳞	2156
祸	2157
潭	2158
腊	2159
蒋	2160
缠	2161
寂	2162
眠	2163
冯	2164
芯	2165
槽	2166
吊	2167
33	2168
150	2169
聊	2170
梗	2171
嫩	2172
凶	2173
铭	2174
爽	2175
筋	2176
韦	2177
脾	2178
铝	2179
肢	2180
栋	2181
勾	2182
萌	2183
渊	2184
掩	2185
狮	2186
撒	2187
漆	2188
骗	2189
禽	2190
38	2191
蕴	2192
坪	2193
洒	2194
冶	2195
兹	2196
椭	2197
喻	2198
泵	2199
哀	2200
翔	2201
1990	2202
棒	2203
芝	2204
x	2205
扑	2206
3000	2207
毅	2208
衍	2209
惨	2210
疯	2211
欺	2212
贼	2213
肖	2214
轰	2215
巢	2216
臂	2217
轩	2218
扁	2219
淘	2220
犬	2221
宰	2222
祠	2223
挡	2224
厌	2225
帐	2226
蜂	2227
狐	2228
垃	2229
昂	2230
圾	2231
秩	2232
芬	2233
瞬	2234
枢	2235
舌	2236
唇	2237
棕	2238
1984	2239
霞	2240
霜	2241
艇	2242
侨	2243
鹤	2244
硅	2245
靖	2246
哦	2247
削	2248
泌	2249
奠	2250
d	2251
吏	2252
夷	2253
咖	2254
彭	2255
窑	2256
胁	2257
肪	2258
120	2259
贞	2260
劝	2261
钙	2262
柜	2263
鸭	2264
75	2265
庞	2266
兔	2267
荆	2268
丙	2269
纱	2270
34	2271
戈	2272
藤	2273
矩	2274
泳	2275
惧	2276
铃	2277
渴	2278
胀	2279
袖	2280
丸	2281
狠	2282
豫	2283
茫	2284
1985	2285
浇	2286
菩	2287
氯	2288
啡	2289
1988	2290
葱	2291
37	2292
梨	2293
霉	2294
脆	2295
氢	2296
巷	2297
丑	2298
娃	2299
锻	2300
愤	2301
贪	2302
蝶	2303
1991	2304
厉	2305
闽	2306
浑	2307
斩	2308
栖	2309
l	2310
茅	2311
昏	2312
龟	2313
碗	2314
棚	2315
滞	2316
慰	2317
600	2318
2016	2319
斋	2320
虹	2321
屯	2322
萝	2323
饼	2324
窄	2325
潘	2326
绣	2327
丢	2328
芦	2329
鳍	2330
42	2331
裕	2332
誓	2333
腻	2334
48	2335
95	2336
锈	2337
吞	2338
蜀	2339
啦	2340
扭	2341
5000	2342
巩	2343
髓	2344
1987	2345
劣	2346
拌	2347
谊	2348
涛	2349
勋	2350
郊	2351
莎	2352
痴	2353
窝	2354
驰	2355
1986	2356
跌	2357
笼	2358
挤	2359
溢	2360
1989	2361
隙	2362
55	2363
鹰	2364
诏	2365
帽	2366
65	2367
芒	2368
爬	2369
凸	2370
牺	2371
熔	2372
吻	2373
竭	2374
瘦	2375
冥	2376
800	2377
搏	2378
屡	2379
昔	2380
萼	2381
愁	2382
捉	2383
翁	2384
怖	2385
汪	2386
烯	2387
疲	2388
缸	2389
溃	2390
85	2391
泼	2392
剖	2393
涨	2394
橡	2395
谜	2396
悔	2397
嫌	2398
盒	2399
苯	2400
凹	2401
绳	2402
畏	2403
罐	2404
虾	2405
柯	2406
邑	2407
馨	2408
兆	2409
帖	2410
陌	2411
禄	2412
垫	2413
壶	2414
逊	2415
骤	2416
祀	2417
晴	2418
蓬	2419
e	2420
苞	2421
煎	2422
菊	2423
堤	2424
甫	2425
拱	2426
氮	2427
罕	2428
舶	2429
伞	2430
姚	2431
弓	2432
嵌	2433
1983	2434
1982	2435
馈	2436
琼	2437
噪	2438
雀	2439
呵	2440
汝	2441
焉	2442
陀	2443
胺	2444
惩	2445
沼	2446
枣	2447
桐	2448
酱	2449
遮	2450
孢	2451
钝	2452
呀	2453
锥	2454
妥	2455
酿	2456
巫	2457
闯	2458
沧	2459
崩	2460
蕊	2461
酬	2462
匠	2463
躲	2464
43	2465
喊	2466
98	2467
琳	2468
46	2469
绎	2470
喉	2471
凰	2472
抬	2473
93	2474
膨	2475
盲	2476
剥	2477
喂	2478
庸	2479
奸	2480
n	2481
钩	2482
冈	2483
募	2484
苑	2485
杏	2486
杉	2487
辱	2488
隋	2489
薪	2490
绒	2491
1980	2492
99	2493
欠	2494
尉	2495
r	2496
攀	2497
抹	2498
巾	2499
1958	2500
渣	2501
苹	2502
猴	2503
悄	2504
屠	2505
41	2506
颂	2507
湛	2508
魄	2509
颠	2510
1949	2511
呆	2512
粤	2513
岂	2514
娇	2515
暑	2516
44	2517
56	2518
52	2519
鹅	2520
筛	2521
膏	2522
樱	2523
p	2524
缆	2525
襄	2526
瑟	2527
恭	2528
泻	2529
匪	2530
兮	2531
恼	2532
吟	2533
仕	2534
蔽	2535
骄	2536
蚕	2537
斥	2538
椅	2539
姬	2540
谦	2541
for	2542
椎	2543
搅	2544
卸	2545
沫	2546
怜	2547
坎	2548
瑰	2549
1978	2550
钦	2551
h	2552
拾	2553
厕	2554
後	2555
逾	2556
薯	2557
衬	2558
钾	2559
崔	2560
稽	2561
蛮	2562
殷	2563
晒	2564
47	2565
菇	2566
臭	2567
弧	2568
擎	2569
粹	2570
纬	2571
1500	2572
焰	2573
玲	2574
竣	2575
咒	2576
歇	2577
糕	2578
诵	2579
茨	2580
妮	2581
酯	2582
麟	2583
卑	2584
浏	2585
咽	2586
罩	2587
舱	2588
酵	2589
晕	2590
顽	2591
赁	2592
咬	2593
枫	2594
冀	2595
贮	2596
艘	2597
亏	2598
薛	2599
瀑	2600
篆	2601
膀	2602
沸	2603
雍	2604
咳	2605
尹	2606
愉	2607
烹	2608
坠	2609
勿	2610
钠	2611
64	2612
坤	2613
甸	2614
墅	2615
闸	2616
藻	2617
韧	2618
鄂	2619
58	2620
51	2621
91	2622
j	2623
瑶	2624
舆	2625
夸	2626
54	2627
蕾	2628
栗	2629
咏	2630
丞	2631
抄	2632
鹏	2633
弊	2634
檐	2635
骂	2636
仆	2637
峻	2638
爪	2639
赚	2640
帆	2641
娶	2642
嘛	2643
钓	2644
澄	2645
猜	2646
1979	2647
裔	2648
抒	2649
铅	2650
卉	2651
彦	2652
f	2653
删	2654
衷	2655
禹	2656
寡	2657
蒲	2658
砌	2659
on	2660
棱	2661
72	2662
拘	2663
堵	2664
雁	2665
仄	2666
荫	2667
53	2668
k	2669
1981	2670
祈	2671
49	2672
奢	2673
赌	2674
寇	2675
3d	2676
隧	2677
摊	2678
雇	2679
卦	2680
婉	2681
敲	2682
挣	2683
皱	2684
虞	2685
亨	2686
懈	2687
挽	2688
珊	2689
饶	2690
滥	2691
锯	2692
闷	2693
it	2694
酮	2695
虐	2696
兑	2697
僵	2698
傻	2699
62	2700
沦	2701
巅	2702
鞭	2703
梳	2704
赣	2705
锌	2706
庐	2707
薇	2708
庵	2709
57	2710
96	2711
慨	2712
肚	2713
妄	2714
g	2715
仗	2716
绑	2717
2017	2718
枕	2719
牡	2720
000	2721
胖	2722
沪	2723
垒	2724
捞	2725
捧	2726
竖	2727
蜡	2728
桩	2729
厢	2730
孵	2731
黏	2732
拯	2733
63	2734
谭	2735
68	2736
诈	2737
灿	2738
釉	2739
1956	2740
裹	2741
钮	2742
俩	2743
o	2744
灶	2745
彝	2746
蟹	2747
涩	2748
醋	2749
110	2750
匙	2751
歧	2752
刹	2753
玫	2754
棘	2755
橙	2756
凑	2757
桶	2758
刃	2759
伽	2760
4000	2761
硝	2762
怡	2763
籽	2764
敞	2765
淳	2766
矮	2767
镶	2768
戚	2769
幢	2770
涡	2771
66	2772
尧	2773
膝	2774
is	2775
哉	2776
肆	2777
畔	2778
溯	2779
97	2780
媚	2781
烘	2782
01	2783
67	2784
窃	2785
焚	2786
澜	2787
愚	2788
棵	2789
乞	2790
86	2791
78	2792
佑	2793
76	2794
iphone	2795
暨	2796
敷	2797
饥	2798
俯	2799
蔓	2800
v	2801
05	2802
88	2803
暮	2804
砍	2805
邵	2806
仑	2807
毗	2808
剿	2809
馀	2810
180	2811
锤	2812
刮	2813
1950	2814
梭	2815
摧	2816
250	2817
掠	2818
躯	2819
诡	2820
匈	2821
侣	2822
胚	2823
疮	2824
59	2825
裙	2826
windows	2827
裸	2828
08	2829
塌	2830
吓	2831
俘	2832
糙	2833
藩	2834
楷	2835
羞	2836
with	2837
鲍	2838
帘	2839
裤	2840
宛	2841
憾	2842
桓	2843
痰	2844
寞	2845
骚	2846
惹	2847
笋	2848
萃	2849
92	2850
栓	2851
61	2852
挫	2853
矢	2854
垦	2855
09	2856
垄	2857
绸	2858
凄	2859
your	2860
镀	2861
熏	2862
钉	2863
1945	2864
led	2865
粪	2866
缅	2867
洽	2868
鞘	2869
蔗	2870
82	2871
迄	2872
沐	2873
凿	2874
勉	2875
昨	2876
喘	2877
700	2878
爹	2879
屑	2880
耻	2881
沥	2882
庶	2883
涅	2884
腕	2885
袍	2886
懒	2887
阜	2888
嗜	2889
朔	2890
1200	2891
蒜	2892
沛	2893
坟	2894
轿	2895
喀	2896
笛	2897
狄	2898
饿	2899
蓉	2900
泣	2901
窟	2902
130	2903
豹	2904
屿	2905
73	2906
崛	2907
迦	2908
诠	2909
贬	2910
腥	2911
83	2912
钥	2913
嗣	2914
瑜	2915
07	2916
倦	2917
萎	2918
拦	2919
冤	2920
讽	2921
潇	2922
谣	2923
趁	2924
1960	2925
妨	2926
84	2927
贩	2928
74	2929
萍	2930
窦	2931
纂	2932
缀	2933
矫	2934
淑	2935
墩	2936
梵	2937
沾	2938
淫	2939
乖	2940
汰	2941
莞	2942
81	2943
旷	2944
浊	2945
挚	2946
撼	2947
69	2948
87	2949
氟	2950
焕	2951
06	2952
庚	2953
掀	2954
诀	2955
kg	2956
盼	2957
71	2958
疹	2959
窖	2960
匆	2961
厥	2962
轧	2963
89	2964
淹	2965
94	2966
160	2967
亥	2968
鸦	2969
棍	2970
谅	2971
歼	2972
汕	2973
挪	2974
蚁	2975
敛	2976
魁	2977
畴	2978
炫	2979
丫	2980
奎	2981
菱	2982
沂	2983
撕	2984
阎	2985
詹	2986
03	2987
蛛	2988
77	2989
靡	2990
瞻	2991
咱	2992
愧	2993
烷	2994
畸	2995
灸	2996
眸	2997
that	2998
觅	2999
芜	3000
1955	3001
廓	3002
斌	3003
躁	3004
麓	3005
摔	3006
1970	3007
烛	3008
睹	3009
孜	3010
缚	3011
堕	3012
昼	3013
睿	3014
琪	3015
琉	3016
贱	3017
6000	3018
渝	3019
跋	3020
1959	3021
茄	3022
1957	3023
舜	3024
1976	3025
诛	3026
1952	3027
捣	3028
芙	3029
04	3030
1961	3031
倚	3032
1938	3033
酰	3034
澈	3035
慌	3036
帜	3037
颤	3038
陇	3039
1962	3040
02	3041
颌	3042
昧	3043
佣	3044
眷	3045
徙	3046
禾	3047
逮	3048
1948	3049
79	3050
莹	3051
碟	3052
梢	3053
朽	3054
粥	3055
喇	3056
1964	3057
榆	3058
驳	3059
楔	3060
1965	3061
啸	3062
肋	3063
dna	3064
踢	3065
1975	3066
1937	3067
u	3068
傍	3069
桔	3070
肴	3071
呕	3072
旭	3073
埠	3074
贿	3075
曝	3076
杖	3077
俭	3078
栩	3079
1953	3080
斧	3081
镁	3082
匾	3083
踩	3084
橘	3085
颅	3086
1963	3087
囚	3088
蛙	3089
1946	3090
膳	3091
坞	3092
琐	3093
荧	3094
瘟	3095
涤	3096
胰	3097
衫	3098
噬	3099
皖	3100
邱	3101
埔	3102
汀	3103
羡	3104
睐	3105
葵	3106
耿	3107
糟	3108
厄	3109
秧	3110
黔	3111
蹄	3112
140	3113
漳	3114
鞍	3115
谏	3116
腋	3117
簇	3118
梧	3119
戎	3120
1977	3121
榴	3122
诣	3123
宦	3124
苔	3125
揽	3126
簧	3127
狸	3128
阙	3129
扯	3130
耍	3131
棠	3132
脓	3133
烫	3134
翘	3135
芭	3136
躺	3137
羁	3138
藉	3139
拐	3140
1966	3141
陡	3142
1954	3143
漓	3144
棺	3145
钧	3146
琅	3147
扔	3148
寝	3149
绚	3150
熬	3151
驿	3152
邹	3153
杠	3154
1972	3155
w	3156
绥	3157
窥	3158
晃	3159
渭	3160
1947	3161
樊	3162
鑫	3163
祁	3164
陋	3165
哺	3166
堰	3167
祛	3168
y	3169
梓	3170
崎	3171
1968	3172
孽	3173
蝴	3174
蔚	3175
抖	3176
苟	3177
肇	3178
溜	3179
绅	3180
妾	3181
1940	3182
跪	3183
沁	3184
q	3185
1973	3186
莽	3187
虏	3188
be	3189
瞄	3190
砸	3191
稚	3192
僚	3193
崭	3194
迭	3195
皂	3196
彬	3197
雏	3198
ip	3199
羲	3200
缕	3201
绞	3202
俞	3203
簿	3204
耸	3205
廖	3206
嘲	3207
can	3208
1969	3209
翌	3210
榄	3211
裴	3212
槐	3213
1939	3214
洼	3215
睁	3216
1951	3217
灼	3218
啤	3219
臀	3220
啥	3221
濒	3222
醛	3223
峨	3224
葫	3225
悍	3226
笨	3227
嘱	3228
1935	3229
稠	3230
360	3231
韶	3232
1941	3233
陛	3234
峭	3235
1974	3236
酚	3237
翩	3238
舅	3239
8000	3240
寅	3241
1936	3242
蕉	3243
阮	3244
垣	3245
戮	3246
me	3247
趾	3248
犀	3249
巍	3250
re	3251
霄	3252
1942	3253
1930	3254
饪	3255
sci	3256
秆	3257
朕	3258
驼	3259
肛	3260
揉	3261
ipad	3262
楠	3263
岚	3264
疡	3265
帧	3266
柑	3267
iso9001	3268
赎	3269
逍	3270
滇	3271
璋	3272
礁	3273
黛	3274
钞	3275
邢	3276
涧	3277
劈	3278
瞳	3279
砚	3280
驴	3281
1944	3282
锣	3283
恳	3284
栅	3285
吵	3286
牟	3287
沌	3288
瞩	3289
咪	3290
毯	3291
炳	3292
淤	3293
盯	3294
芋	3295
粟	3296
350	3297
栈	3298
戊	3299
盏	3300
峪	3301
拂	3302
暇	3303
酥	3304
汛	3305
900	3306
pc	3307
嚣	3308
2500	3309
轼	3310
妒	3311
匿	3312
1934	3313
鸽	3314
蝉	3315
cd	3316
痒	3317
宵	3318
瘫	3319
1927	3320
1943	3321
璧	3322
汲	3323
1971	3324
冢	3325
碌	3326
琢	3327
磅	3328
卤	3329
105	3330
剔	3331
谎	3332
圩	3333
酌	3334
捏	3335
渺	3336
媳	3337
1933	3338
穹	3339
谥	3340
骏	3341
哨	3342
骆	3343
乒	3344
10000	3345
摹	3346
兜	3347
柿	3348
喧	3349
呜	3350
捡	3351
橄	3352
逗	3353
瑚	3354
呐	3355
檀	3356
辜	3357
妊	3358
祯	3359
1931	3360
苷	3361
don	3362
衙	3363
笃	3364
芸	3365
霖	3366
荔	3367
闺	3368
羌	3369
芹	3370
dvd	3371
哼	3372
糯	3373
吼	3374
蕃	3375
嵩	3376
矶	3377
绽	3378
坯	3379
娠	3380
1928	3381
祷	3382
锰	3383
qq	3384
by	3385
瘀	3386
108	3387
岐	3388
1932	3389
茵	3390
筝	3391
斐	3392
肽	3393
歉	3394
1929	3395
嗽	3396
恤	3397
汶	3398
聂	3399
樟	3400
擒	3401
鹃	3402
拙	3403
鲤	3404
絮	3405
鄙	3406
彪	3407
ipod	3408
z	3409
嗓	3410
墟	3411
骼	3412
渤	3413
僻	3414
豁	3415
谕	3416
荟	3417
姨	3418
婷	3419
挠	3420
哇	3421
炙	3422
220	3423
诅	3424
娥	3425
哑	3426
阱	3427
嫉	3428
圭	3429
乓	3430
橱	3431
歪	3432
禧	3433
甩	3434
坷	3435
晏	3436
驯	3437
讳	3438
泗	3439
煞	3440
my	3441
淄	3442
倪	3443
妓	3444
窍	3445
竿	3446
襟	3447
匡	3448
钛	3449
侈	3450
ll	3451
侄	3452
铲	3453
哮	3454
厩	3455
1967	3456
亢	3457
101	3458
辕	3459
瘾	3460
辊	3461
狩	3462
掷	3463
潍	3464
240	3465
伺	3466
嘿	3467
弈	3468
嘎	3469
陨	3470
娅	3471
1800	3472
昊	3473
犁	3474
屁	3475
蜘	3476
170	3477
寥	3478
滕	3479
毙	3480
as	3481
涝	3482
谛	3483
all	3484
郝	3485
痹	3486
溺	3487
汾	3488
脐	3489
馅	3490
蠢	3491
珀	3492
腌	3493
扼	3494
敕	3495
莓	3496
峦	3497
铬	3498
谍	3499
炬	3500
龚	3501
麒	3502
睦	3503
磺	3504
吁	3505
掺	3506
烁	3507
靶	3508
or	3509
圃	3510
饵	3511
褶	3512
娟	3513
滔	3514
挨	3515
android	3516
褒	3517
胱	3518
cpu	3519
晖	3520
脖	3521
垢	3522
抉	3523
冉	3524
茧	3525
from	3526
渲	3527
癫	3528
125	3529
de	3530
悼	3531
嫂	3532
瞒	3533
纶	3534
肘	3535
炖	3536
瀚	3537
皋	3538
姊	3539
颐	3540
1600	3541
俏	3542
颊	3543
gps	3544
讶	3545
札	3546
奕	3547
磊	3548
镖	3549
遐	3550
眺	3551
腑	3552
boss	3553
琦	3554
蚊	3555
窜	3556
渍	3557
嗯	3558
102	3559
1926	3560
touch	3561
夯	3562
1300	3563
笙	3564
蘑	3565
翡	3566
碘	3567
卯	3568
啼	3569
靓	3570
辍	3571
莺	3572
躬	3573
猿	3574
杞	3575
眩	3576
虔	3577
凋	3578
遁	3579
泾	3580
岔	3581
羟	3582
弛	3583
娄	3584
茸	3585
皓	3586
峙	3587
逅	3588
邂	3589
苇	3590
楹	3591
蹲	3592
拢	3593
甄	3594
鳃	3595
104	3596
邯	3597
捆	3598
勺	3599
450	3600
酉	3601
荚	3602
唑	3603
臻	3604
辗	3605
绰	3606
徊	3607
榨	3608
苛	3609
赦	3610
盔	3611
壬	3612
恍	3613
缉	3614
2020	3615
熨	3616
7000	3617
澡	3618
桨	3619
匣	3620
兢	3621
106	3622
驭	3623
x1	3624
镍	3625
孰	3626
绮	3627
馏	3628
蝇	3629
佼	3630
鲸	3631
128	3632
哎	3633
裳	3634
蜕	3635
嚼	3636
嘻	3637
web	3638
庇	3639
绢	3640
倩	3641
钵	3642
ii	3643
恪	3644
帷	3645
莆	3646
柠	3647
藕	3648
砾	3649
115	3650
绊	3651
喙	3652
坂	3653
徘	3654
荀	3655
瞧	3656
蛾	3657
1925	3658
晦	3659
ph	3660
mm	3661
铎	3662
107	3663
紊	3664
锚	3665
酪	3666
稷	3667
聋	3668
闵	3669
熹	3670
冕	3671
诫	3672
珑	3673
曦	3674
篷	3675
320	3676
迥	3677
蘖	3678
胤	3679
103	3680
檬	3681
瑾	3682
钳	3683
遏	3684
辄	3685
嬉	3686
隅	3687
ps	3688
秃	3689
112	3690
帛	3691
聆	3692
芥	3693
诬	3694
1100	3695
挟	3696
宕	3697
2018	3698
鹊	3699
琶	3700
膛	3701
mv	3702
兀	3703
gb	3704
懿	3705
碾	3706
叮	3707
863	3708
蠕	3709
譬	3710
缮	3711
烽	3712
妍	3713
榕	3714
260	3715
1920	3716
邃	3717
焙	3718
倘	3719
210	3720
戌	3721
茹	3722
豚	3723
晾	3724
浒	3725
玺	3726
醚	3727
祐	3728
炽	3729
this	3730
缪	3731
凛	3732
噩	3733
溅	3734
毋	3735
槛	3736
ei	3737
are	3738
嫡	3739
蝠	3740
娴	3741
稣	3742
禀	3743
壑	3744
殆	3745
敖	3746
cm	3747
ios	3748
倭	3749
挛	3750
侃	3751
蚌	3752
咀	3753
盎	3754
殉	3755
岑	3756
浚	3757
谬	3758
狡	3759
1924	3760
癸	3761
280	3762
逛	3763
耽	3764
俺	3765
璨	3766
巳	3767
茜	3768
郸	3769
蒴	3770
琵	3771
we	3772
230	3773
叩	3774
泸	3775
塾	3776
one	3777
稼	3778
reg	3779
侮	3780
锂	3781
曙	3782
3500	3783
up	3784
薰	3785
婿	3786
惶	3787
拭	3788
篱	3789
恬	3790
淌	3791
烙	3792
袜	3793
徵	3794
慷	3795
夭	3796
噶	3797
莘	3798
135	3799
鸳	3800
殡	3801
蚂	3802
1900	3803
憎	3804
喃	3805
佚	3806
龛	3807
潢	3808
烃	3809
at	3810
岱	3811
潺	3812
109	3813
衢	3814
璀	3815
5cm	3816
1400	3817
鹭	3818
揣	3819
痢	3820
know	3821
厮	3822
氓	3823
怠	3824
no	3825
nbsp	3826
痘	3827
硒	3828
镌	3829
乍	3830
咯	3831
惬	3832
not	3833
桦	3834
骇	3835
枉	3836
蜗	3837
睾	3838
淇	3839
耘	3840
娓	3841
弼	3842
鳌	3843
嗅	3844
gdp	3845
狙	3846
箫	3847
朦	3848
椰	3849
胥	3850
丐	3851
陂	3852
唾	3853
鳄	3854
柚	3855
谒	3856
journal	3857
戍	3858
1912	3859
刁	3860
鸾	3861
缭	3862
骸	3863
铣	3864
酋	3865
蝎	3866
掏	3867
耦	3868
怯	3869
娲	3870
拇	3871
汹	3872
胧	3873
疤	3874
118	3875
硼	3876
恕	3877
哗	3878
眶	3879
痫	3880
凳	3881
鲨	3882
擢	3883
歹	3884
樵	3885
瘠	3886
app	3887
茗	3888
翟	3889
黯	3890
蜒	3891
壹	3892
殇	3893
伶	3894
辙	3895
an	3896
瑕	3897
町	3898
孚	3899
痉	3900
铵	3901
搁	3902
漾	3903
戟	3904
镰	3905
鸯	3906
猩	3907
190	3908
蔷	3909
缤	3910
叭	3911
垩	3912
113	3913
曳	3914
usb	3915
奚	3916
毓	3917
ibm	3918
颓	3919
汐	3920
靴	3921
china	3922
傣	3923
尬	3924
濮	3925
赂	3926
媛	3927
懦	3928
扦	3929
111	3930
韬	3931
like	3932
戳	3933
java	3934
雯	3935
114	3936
蜿	3937
116	3938
1923	3939
笺	3940
裘	3941
尴	3942
侗	3943
mba	3944
3g	3945
钨	3946
1919	3947
苓	3948
1922	3949
寰	3950
蛊	3951
扳	3952
搓	3953
涟	3954
睫	3955
淬	3956
5mm	3957
123	3958
ve	3959
121	3960
赈	3961
恺	3962
瞎	3963
蝙	3964
1921	3965
枸	3966
萱	3967
颚	3968
憩	3969
秽	3970
秸	3971
拷	3972
阑	3973
貂	3974
粱	3975
煲	3976
隘	3977
暧	3978
惕	3979
沽	3980
time	3981
菠	3982
1911	3983
趟	3984
磋	3985
偕	3986
涕	3987
邸	3988
so	3989
踞	3990
惫	3991
122	3992
阪	3993
鞠	3994
饺	3995
汞	3996
颍	3997
氰	3998
屹	3999
蛟	4000
跻	4001
哟	4002
have	4003
126	4004
臼	4005
熄	4006
绛	4007
弩	4008
褪	4009
117	4010
渎	4011
亟	4012
匮	4013
撇	4014
internet	4015
霆	4016
攒	4017
舵	4018
扛	4019
彤	4020
nba	4021
蛤	4022
婢	4023
偃	4024
胫	4025
姥	4026
睑	4027
love	4028
iso	4029
pk	4030
诙	4031
what	4032
诲	4033
锭	4034
悚	4035
扒	4036
洱	4037
劾	4038
惰	4039
篡	4040
瓯	4041
徇	4042
铀	4043
骋	4044
flash	4045
1918	4046
out	4047
筷	4048
渚	4049
踵	4050
俨	4051
ceo	4052
榻	4053
糜	4054
捻	4055
釜	4056
哩	4057
萤	4058
270	4059
蛹	4060
隽	4061
垮	4062
鸠	4063
鸥	4064
漕	4065
瑙	4066
礴	4067
憧	4068
殴	4069
潼	4070
悯	4071
砺	4072
拽	4073
钗	4074
ct	4075
酣	4076
镂	4077
mp3	4078
膺	4079
楞	4080
竺	4081
迂	4082
嫣	4083
忱	4084
cad	4085
哄	4086
疣	4087
鹦	4088
1700	4089
枭	4090
憬	4091
疱	4092
will	4093
婪	4094
沮	4095
1914	4096
怅	4097
119	4098
筱	4099
扉	4100
瞰	4101
linux	4102
旌	4103
蔑	4104
铠	4105
瀛	4106
vip	4107
琥	4108
750	4109
127	4110
懵	4111
谴	4112
捍	4113
蟾	4114
漩	4115
1913	4116
拣	4117
汴	4118
university	4119
刨	4120
叱	4121
曜	4122
妞	4123
澎	4124
镑	4125
翎	4126
瞪	4127
sh	4128
倔	4129
芍	4130
璞	4131
瓮	4132
驹	4133
芷	4134
寐	4135
擂	4136
丕	4137
蟠	4138
诃	4139
悸	4140
亘	4141
溴	4142
宸	4143
廿	4144
恃	4145
棣	4146
1917	4147
荼	4148
筠	4149
羚	4150
慑	4151
唉	4152
纣	4153
麼	4154
蹦	4155
锄	4156
145	4157
international	4158
124	4159
淆	4160
甙	4161
132	4162
蚜	4163
椿	4164
禺	4165
绯	4166
冗	4167
168	4168
葩	4169
厝	4170
媲	4171
蒿	4172
痪	4173
650	4174
菁	4175
炊	4176
wifi	4177
俑	4178
new	4179
讥	4180
min	4181
桀	4182
祺	4183
129	4184
吡	4185
迩	4186
do	4187
john	4188
箔	4189
皿	4190
缎	4191
萦	4192
剃	4193
霓	4194
酝	4195
mg	4196
诰	4197
茉	4198
just	4199
get	4200
飙	4201
湍	4202
蜥	4203
箕	4204
蘸	4205
550	4206
4500	4207
柬	4208
韭	4209
溥	4210
but	4211
熠	4212
鹉	4213
咐	4214
剌	4215
138	4216
悖	4217
瞿	4218
槟	4219
娩	4220
闾	4221
pvc	4222
遴	4223
咫	4224
20000	4225
孺	4226
彷	4227
茬	4228
211	4229
蓟	4230
li	4231
if	4232
憨	4233
袅	4234
佬	4235
炯	4236
erp	4237
1910	4238
啶	4239
昙	4240
蚩	4241
136	4242
痔	4243
蕨	4244
瓢	4245
夔	4246
毡	4247
赃	4248
鳖	4249
沅	4250
wang	4251
go	4252
饷	4253
165	4254
臧	4255
掖	4256
褚	4257
羹	4258
ic	4259
勐	4260
tv	4261
谚	4262
畦	4263
眨	4264
贻	4265
攸	4266
涎	4267
弑	4268
咎	4269
铂	4270
瑛	4271
1905	4272
矗	4273
虱	4274
more	4275
133	4276
秤	4277
谟	4278
漱	4279
俸	4280
夙	4281
1915	4282
br	4283
game	4284
雉	4285
螨	4286
恣	4287
斛	4288
175	4289
谙	4290
隍	4291
131	4292
奄	4293
480	4294
yy	4295
1916	4296
壕	4297
髻	4298
155	4299
鄱	4300
嘶	4301
磕	4302
濡	4303
赘	4304
荞	4305
讹	4306
猕	4307
痞	4308
鬓	4309
铮	4310
腱	4311
幡	4312
榭	4313
爻	4314
5m	4315
涓	4316
晤	4317
咕	4318
惭	4319
钼	4320
匕	4321
ok	4322
撮	4323
庾	4324
笠	4325
窘	4326
癖	4327
365	4328
垛	4329
窒	4330
畲	4331
甬	4332
彗	4333
缨	4334
湮	4335
寮	4336
et	4337
衅	4338
谪	4339
156	4340
绫	4341
9000	4342
152	4343
兖	4344
疽	4345
磐	4346
380	4347
菏	4348
沱	4349
骁	4350
嫔	4351
盂	4352
娆	4353
钊	4354
蟒	4355
忏	4356
谤	4357
148	4358
137	4359
server	4360
2200	4361
晟	4362
ng	4363
15000	4364
google	4365
痈	4366
耆	4367
谧	4368
簪	4369
134	4370
ml	4371
疟	4372
扈	4373
脍	4374
琛	4375
咋	4376
胄	4377
142	4378
144	4379
葆	4380
轶	4381
桢	4382
973	4383
攘	4384
was	4385
邕	4386
拧	4387
茯	4388
205	4389
摒	4390
1908	4391
intel	4392
傀	4393
祚	4394
嘟	4395
帼	4396
1906	4397
wto	4398
筵	4399
when	4400
馒	4401
疚	4402
璇	4403
砧	4404
merge	4405
槃	4406
microsoft	4407
犷	4408
exe	4409
腓	4410
煜	4411
弋	4412
疸	4413
濑	4414
310	4415
201	4416
麝	4417
嗟	4418
忻	4419
愣	4420
facebook	4421
斓	4422
吝	4423
咧	4424
矾	4425
愫	4426
151	4427
158	4428
漪	4429
珂	4430
rna	4431
逞	4432
146	4433
206	4434
糠	4435
璐	4436
藓	4437
昕	4438
妩	4439
屌	4440
疵	4441
excel	4442
嘘	4443
he	4444
plc	4445
袂	4446
2400	4447
139	4448
稃	4449
剁	4450
侏	4451
掐	4452
猾	4453
匍	4454
2800	4455
坳	4456
黜	4457
邺	4458
闫	4459
猥	4460
湃	4461
斟	4462
癣	4463
1904	4464
185	4465
匐	4466
粳	4467
sql	4468
330	4469
141	4470
cp	4471
1909	4472
叟	4473
俾	4474
儡	4475
莒	4476
12000	4477
骥	4478
跤	4479
耙	4480
矜	4481
翱	4482
zhang	4483
ms	4484
赡	4485
1907	4486
浣	4487
栾	4488
拈	4489
science	4490
420	4491
螟	4492
aaa	4493
桧	4494
坍	4495
睢	4496
趴	4497
id	4498
伎	4499
2100	4500
婺	4501
霹	4502
痊	4503
膊	4504
眯	4505
豌	4506
202	4507
驮	4508
骈	4509
850	4510
iii	4511
嶂	4512
淞	4513
143	4514
腮	4515
髅	4516
炀	4517
啄	4518
亳	4519
麾	4520
147	4521
筐	4522
叨	4523
徨	4524
跷	4525
ac	4526
楂	4527
郴	4528
绶	4529
hp	4530
羔	4531
xp	4532
ieee	4533
咤	4534
now	4535
there	4536
靳	4537
they	4538
屎	4539
雳	4540
瘘	4541
蹬	4542
2300	4543
惮	4544
acid	4545
涪	4546
阖	4547
煽	4548
蹊	4549
225	4550
栉	4551
153	4552
俟	4553
涸	4554
辫	4555
锢	4556
佟	4557
176	4558
皎	4559
cctv	4560
啮	4561
钰	4562
螂	4563
dc	4564
啪	4565
绷	4566
204	4567
闰	4568
畿	4569
2d	4570
覃	4571
2600	4572
惘	4573
贰	4574
154	4575
碉	4576
卞	4577
酐	4578
枷	4579
葺	4580
芪	4581
207	4582
蕙	4583
192	4584
咚	4585
籁	4586
pro	4587
钴	4588
162	4589
冽	4590
玮	4591
骷	4592
啃	4593
焖	4594
猝	4595
榈	4596
滁	4597
拮	4598
跗	4599
讷	4600
蝗	4601
208	4602
蠡	4603
world	4604
烨	4605
been	4606
hd	4607
gmp	4608
256	4609
脯	4610
歙	4611
泠	4612
刍	4613
掳	4614
pe	4615
his	4616
僳	4617
340	4618
1902	4619
螯	4620
胳	4621
髦	4622
粽	4623
戾	4624
祜	4625
178	4626
186	4627
岷	4628
懋	4629
馥	4630
昵	4631
踊	4632
湄	4633
郢	4634
斡	4635
迢	4636
ce	4637
photoshop	4638
嗪	4639
about	4640
裨	4641
1903	4642
羧	4643
膈	4644
翊	4645
lcd	4646
鲫	4647
163	4648
螃	4649
沓	4650
疝	4651
笈	4652
ktv	4653
榔	4654
157	4655
诘	4656
autocad	4657
195	4658
颉	4659
蛀	4660
鸢	4661
焯	4662
囧	4663
make	4664
梆	4665
npc	4666
潞	4667
戛	4668
see	4669
system	4670
149	4671
佗	4672
艮	4673
chinese	4674
let	4675
霾	4676
鬟	4677
215	4678
net	4679
玖	4680
1898	4681
腭	4682
喔	4683
172	4684
罔	4685
佥	4686
粑	4687
visual	4688
舷	4689
泯	4690
m2	4691
198	4692
has	4693
203	4694
sd	4695
泓	4696
炜	4697
谗	4698
烬	4699
跆	4700
rpg	4701
傩	4702
飓	4703
浔	4704
钤	4705
惚	4706
胭	4707
踝	4708
镯	4709
ep	4710
221	4711
臆	4712
196	4713
蜚	4714
揪	4715
觞	4716
皈	4717
dj	4718
183	4719
api	4720
迸	4721
匝	4722
筏	4723
167	4724
醴	4725
黍	4726
洮	4727
滦	4728
侬	4729
甾	4730
290	4731
way	4732
3200	4733
188	4734
diy	4735
2cm	4736
com	4737
澧	4738
阈	4739
袱	4740
迤	4741
衮	4742
166	4743
濂	4744
娑	4745
砥	4746
砷	4747
铨	4748
缜	4749
箴	4750
30000	4751
逵	4752
猖	4753
159	4754
蛰	4755
箍	4756
侥	4757
2mm	4758
搂	4759
纨	4760
裱	4761
枋	4762
嫦	4763
敝	4764
挝	4765
贲	4766
潦	4767
235	4768
撩	4769
惺	4770
铰	4771
f1	4772
忒	4773
咆	4774
哆	4775
莅	4776
164	4777
炕	4778
抨	4779
涿	4780
龈	4781
猷	4782
got	4783
b1	4784
182	4785
2m	4786
212	4787
遒	4788
缥	4789
vs	4790
捂	4791
俐	4792
la	4793
瘙	4794
搐	4795
牍	4796
isbn	4797
馍	4798
our	4799
痿	4800
袤	4801
峥	4802
184	4803
栎	4804
罹	4805
燎	4806
喵	4807
209	4808
1901	4809
璜	4810
飒	4811
蔼	4812
珞	4813
澹	4814
奘	4815
岖	4816
芡	4817
簸	4818
杵	4819
甥	4820
骊	4821
216	4822
悴	4823
173	4824
惆	4825
5mg	4826
殃	4827
1895	4828
呃	4829
161	4830
5g	4831
祗	4832
3600	4833
髋	4834
169	4835
liu	4836
who	4837
幔	4838
down	4839
榛	4840
犊	4841
霁	4842
芮	4843
520	4844
牒	4845
佰	4846
her	4847
狈	4848
薨	4849
co	4850
吩	4851
鳝	4852
嵘	4853
濠	4854
呤	4855
纫	4856
3mm	4857
檄	4858
214	4859
浜	4860
370	4861
189	4862
缙	4863
缢	4864
煦	4865
蓦	4866
揖	4867
拴	4868
缈	4869
218	4870
褥	4871
铿	4872
312	4873
燮	4874
life	4875
锵	4876
174	4877
荥	4878
187	4879
忿	4880
4s	4881
僖	4882
婶	4883
171	4884
chen	4885
芾	4886
镐	4887
痣	4888
research	4889
眈	4890
460	4891
祇	4892
邈	4893
翳	4894
碣	4895
遨	4896
鳗	4897
诂	4898
never	4899
岫	4900
焘	4901
3cm	4902
co2	4903
茱	4904
tcp	4905
only	4906
255	4907
gsm	4908
say	4909
洵	4910
晁	4911
right	4912
噢	4913
she	4914
over	4915
偈	4916
旖	4917
david	4918
181	4919
232	4920
蚓	4921
柘	4922
珐	4923
遽	4924
岌	4925
桅	4926
213	4927
唔	4928
222	4929
鄞	4930
雹	4931
michael	4932
驸	4933
苻	4934
恻	4935
鬃	4936
玑	4937
磬	4938
崂	4939
304	4940
祉	4941
荤	4942
淼	4943
560	4944
264	4945
肱	4946
呗	4947
pp	4948
b2	4949
骡	4950
囱	4951
10cm	4952
佞	4953
back	4954
1890	4955
226	4956
耒	4957
伫	4958
嚷	4959
粼	4960
aa	4961
歆	4962
佃	4963
旎	4964
惋	4965
殁	4966
杳	4967
their	4968
阡	4969
red	4970
畈	4971
蔺	4972
os	4973
177	4974
map	4975
巽	4976
cbd	4977
昱	4978
啰	4979
吠	4980
179	4981
199	4982
嗔	4983
涮	4984
238	4985
奂	4986
1896	4987
撷	4988
301	4989
袒	4990
720	4991
爰	4992
捶	4993
赭	4994
蜓	4995
姗	4996
蔻	4997
垠	4998
193	4999
gis	5000
噻	5001
ab	5002
峒	5003
皙	5004
want	5005
245	5006
憔	5007
帚	5008
office	5009
xx	5010
杷	5011
蟆	5012
iso14001	5013
觐	5014
钒	5015
岙	5016
2700	5017
1899	5018
栀	5019
幄	5020
啧	5021
癜	5022
擀	5023
轲	5024
铆	5025
them	5026
讴	5027
樽	5028
霏	5029
mtv	5030
肮	5031
枳	5032
骞	5033
诧	5034
瘢	5035
虬	5036
拗	5037
play	5038
219	5039
蕲	5040
316	5041
茁	5042
唆	5043
technology	5044
word	5045
沭	5046
毂	5047
蛎	5048
芊	5049
銮	5050
瞥	5051
呱	5052
223	5053
羿	5054
吒	5055
傥	5056
髯	5057
濯	5058
蜻	5059
皴	5060
802	5061
430	5062
邳	5063
燧	5064
1860	5065
獭	5066
垭	5067
祟	5068
217	5069
虢	5070
how	5071
枇	5072
abs	5073
鹫	5074
194	5075
颞	5076
1894	5077
333	5078
皑	5079
脲	5080
197	5081
舔	5082
魇	5083
霭	5084
org	5085
坨	5086
郧	5087
baby	5088
椽	5089
舫	5090
228	5091
oh	5092
305	5093
荠	5094
琊	5095
溟	5096
1897	5097
煨	5098
265	5099
谯	5100
粲	5101
罂	5102
gonna	5103
屉	5104
佯	5105
郦	5106
亵	5107
诽	5108
芩	5109
嵇	5110
蚤	5111
哒	5112
315	5113
啬	5114
ain	5115
嚎	5116
玥	5117
twitter	5118
191	5119
隼	5120
唢	5121
铛	5122
cause	5123
壅	5124
藜	5125
won	5126
吱	5127
rom	5128
楣	5129
璟	5130
锆	5131
憋	5132
罡	5133
al	5134
咙	5135
1850	5136
腈	5137
oslash	5138
job	5139
233	5140
廪	5141
堑	5142
into	5143
诩	5144
b2c	5145
溧	5146
鹑	5147
讫	5148
哌	5149
铢	5150
蜴	5151
1ml	5152
稹	5153
噜	5154
镉	5155
224	5156
愕	5157
桁	5158
晔	5159
琰	5160
陲	5161
疙	5162
667	5163
崮	5164
need	5165
540	5166
8mm	5167
html	5168
颛	5169
through	5170
asp	5171
桡	5172
钜	5173
580	5174
take	5175
谑	5176
仞	5177
咦	5178
珪	5179
揍	5180
鱿	5181
阉	5182
3800	5183
瘩	5184
410	5185
槌	5186
滓	5187
茴	5188
tft	5189
泮	5190
涣	5191
atm	5192
pci	5193
柞	5194
渥	5195
飨	5196
孪	5197
沔	5198
谲	5199
桉	5200
vcd	5201
慵	5202
318	5203
oem	5204
other	5205
俚	5206
paul	5207
跖	5208
纭	5209
恙	5210
which	5211
fi	5212
佘	5213
236	5214
荃	5215
咄	5216
鞅	5217
叁	5218
james	5219
恽	5220
m3	5221
253	5222
炔	5223
萘	5224
钺	5225
6500	5226
1880	5227
ccd	5228
楫	5229
塬	5230
钡	5231
琮	5232
苄	5233
950	5234
325	5235
275	5236
1g	5237
day	5238
o2o	5239
960	5240
music	5241
骰	5242
偎	5243
粕	5244
amd	5245
咔	5246
鹄	5247
瓒	5248
阆	5249
捅	5250
嬴	5251
adobe	5252
箨	5253
name	5254
390	5255
680	5256
640	5257
氦	5258
倜	5259
b2b	5260
觊	5261
xml	5262
婕	5263
229	5264
jar	5265
锑	5266
撬	5267
chem	5268
掰	5269
嗷	5270
5500	5271
1cm	5272
饯	5273
蓓	5274
234	5275
good	5276
鼬	5277
spa	5278
佤	5279
5a	5280
ss	5281
蚯	5282
挞	5283
臾	5284
where	5285
atp	5286
227	5287
嶙	5288
幂	5289
饬	5290
闱	5291
live	5292
high	5293
煅	5294
嘧	5295
1mm	5296
蹭	5297
sun	5298
abc	5299
瞭	5300
顼	5301
箐	5302
here	5303
徉	5304
231	5305
骜	5306
302	5307
嗨	5308
邛	5309
庑	5310
柩	5311
饕	5312
俎	5313
4mm	5314
15g	5315
嘌	5316
50000	5317
颏	5318
cssci	5319
椁	5320
崧	5321
锉	5322
籼	5323
1870	5324
狞	5325
弁	5326
6mm	5327
羯	5328
踹	5329
糅	5330
248	5331
1840	5332
砼	5333
263	5334
嫖	5335
tmp	5336
252	5337
mac	5338
285	5339
豉	5340
啉	5341
榷	5342
嘈	5343
en	5344
俪	5345
痂	5346
308	5347
inf	5348
630	5349
儋	5350
4a	5351
芎	5352
ai	5353
man	5354
繇	5355
1889	5356
bt	5357
239	5358
meta	5359
蹇	5360
242	5361
530	5362
诋	5363
bbc	5364
煸	5365
峋	5366
淙	5367
324	5368
management	5369
1885	5370
泱	5371
徜	5372
crm	5373
4cm	5374
free	5375
汩	5376
纥	5377
246	5378
蝼	5379
囿	5380
uv	5381
暹	5382
谆	5383
蹂	5384
鞣	5385
3c	5386
mr	5387
螳	5388
cs	5389
馗	5390
幺	5391
鞑	5392
贽	5393
268	5394
istp	5395
243	5396
漯	5397
237	5398
牦	5399
淖	5400
engineering	5401
dr	5402
囤	5403
than	5404
gprs	5405
sp	5406
440	5407
晗	5408
1888	5409
258	5410
忡	5411
懊	5412
呋	5413
埂	5414
pcb	5415
307	5416
first	5417
321	5418
robert	5419
鲈	5420
sup2	5421
阕	5422
3m	5423
幌	5424
cg	5425
303	5426
鳅	5427
勰	5428
find	5429
8cm	5430
萸	5431
剽	5432
蚝	5433
wi	5434
绔	5435
pdf	5436
1250	5437
262	5438
php	5439
辇	5440
10mg	5441
use	5442
ie	5443
麋	5444
1884	5445
陟	5446
宥	5447
oracle	5448
锺	5449
喽	5450
620	5451
1892	5452
1893	5453
淅	5454
熵	5455
荨	5456
247	5457
忤	5458
american	5459
266	5460
seo	5461
轭	5462
嗦	5463
荪	5464
also	5465
骠	5466
鹘	5467
p2p	5468
4g	5469
聿	5470
绾	5471
诶	5472
985	5473
怆	5474
244	5475
喋	5476
恸	5477
湟	5478
睨	5479
翦	5480
fe	5481
蜈	5482
1875	5483
褂	5484
娼	5485
1886	5486
羸	5487
觎	5488
470	5489
瘁	5490
306	5491
蚣	5492
呻	5493
241	5494
1882	5495
昶	5496
谶	5497
猬	5498
荻	5499
school	5500
286	5501
酗	5502
unit	5503
肄	5504
躏	5505
膑	5506
288	5507
2g	5508
嗡	5509
273	5510
iv	5511
cam	5512
510	5513
庠	5514
崽	5515
254	5516
搪	5517
pcr	5518
胯	5519
309	5520
铉	5521
峤	5522
郯	5523
藐	5524
舂	5525
come	5526
蓼	5527
some	5528
薏	5529
窿	5530
羣	5531
氽	5532
徕	5533
冼	5534
rs	5535
阂	5536
欤	5537
殒	5538
窈	5539
脘	5540
780	5541
篝	5542
yang	5543
1861	5544
3300	5545
iso9000	5546
麸	5547
砭	5548
max	5549
砰	5550
骶	5551
豺	5552
lg	5553
窠	5554
獒	5555
think	5556
腴	5557
苕	5558
any	5559
its	5560
缇	5561
骅	5562
劭	5563
college	5564
卅	5565
ups	5566
揆	5567
垅	5568
na	5569
6cm	5570
琏	5571
镗	5572
苜	5573
胛	5574
1881	5575
black	5576
珏	5577
吮	5578
抠	5579
搔	5580
276	5581
rock	5582
251	5583
槎	5584
4200	5585
323	5586
掣	5587
pet	5588
1887	5589
ap	5590
琨	5591
餮	5592
375	5593
舛	5594
give	5595
si	5596
痤	5597
us	5598
311	5599
278	5600
埭	5601
english	5602
peter	5603
1891	5604
820	5605
胪	5606
喹	5607
妲	5608
婀	5609
帙	5610
10g	5611
oa	5612
7500	5613
箩	5614
灏	5615
霎	5616
logo	5617
袄	5618
dsp	5619
bl	5620
镭	5621
蓿	5622
power	5623
long	5624
墉	5625
too	5626
嵊	5627
1862	5628
girl	5629
堇	5630
king	5631
蟋	5632
610	5633
叽	5634
249	5635
钎	5636
30cm	5637
fm	5638
録	5639
group	5640
1883	5641
郓	5642
瘴	5643
vol	5644
丶	5645
呦	5646
邬	5647
頫	5648
272	5649
馁	5650
hiv	5651
鄢	5652
257	5653
1876	5654
ordm	5655
蛭	5656
322	5657
愍	5658
锲	5659
槿	5660
珈	5661
best	5662
4800	5663
mri	5664
1080	5665
fda	5666
10mm	5667
261	5668
nt	5669
660	5670
super	5671
1m	5672
center	5673
ui	5674
335	5675
蜃	5676
298	5677
拎	5678
鎏	5679
裟	5680
沏	5681
np	5682
螭	5683
7mm	5684
觑	5685
墒	5686
捺	5687
轸	5688
micro	5689
榫	5690
based	5691
319	5692
怔	5693
ram	5694
618	5695
昀	5696
even	5697
泷	5698
1864	5699
ca	5700
凫	5701
唠	5702
狰	5703
鲛	5704
氐	5705
呛	5706
绀	5707
碛	5708
茏	5709
盅	5710
蟀	5711
洙	5712
off	5713
訇	5714
蠹	5715
auml	5716
dos	5717
20cm	5718
267	5719
棂	5720
18000	5721
蚴	5722
篾	5723
two	5724
靛	5725
暄	5726
show	5727
1868	5728
泞	5729
cdma	5730
mark	5731
vc	5732
洄	5733
赓	5734
麽	5735
25000	5736
篓	5737
孑	5738
860	5739
烩	5740
980	5741
design	5742
颢	5743
钣	5744
var	5745
髂	5746
蹴	5747
wanna	5748
筮	5749
蝌	5750
醮	5751
home	5752
菖	5753
fun	5754
cmos	5755
獗	5756
friends	5757
business	5758
岘	5759
570	5760
鼐	5761
1865	5762
姣	5763
national	5764
1874	5765
蟑	5766
袈	5767
葶	5768
掬	5769
most	5770
vga	5771
emba	5772
躇	5773
30g	5774
鹌	5775
city	5776
踌	5777
282	5778
钹	5779
蚪	5780
颧	5781
001	5782
13000	5783
鹳	5784
274	5785
km	5786
345	5787
1050	5788
stop	5789
328	5790
then	5791
鲲	5792
驷	5793
潴	5794
295	5795
386	5796
焱	5797
稔	5798
悌	5799
mpeg	5800
st	5801
suv	5802
vista	5803
a1	5804
vi	5805
283	5806
help	5807
basic	5808
唏	5809
11000	5810
苒	5811
蹙	5812
house	5813
heart	5814
ouml	5815
281	5816
氩	5817
bug	5818
mobile	5819
宓	5820
service	5821
dll	5822
綦	5823
苎	5824
application	5825
疃	5826
methyl	5827
攫	5828
rfid	5829
100g	5830
287	5831
掾	5832
1871	5833
徭	5834
490	5835
舀	5836
逶	5837
嗤	5838
760	5839
0m	5840
ge	5841
1872	5842
people	5843
hr	5844
蜷	5845
茔	5846
512	5847
疳	5848
迳	5849
罄	5850
瓠	5851
100mg	5852
讪	5853
psp	5854
av	5855
傈	5856
ppp	5857
杲	5858
灞	5859
氲	5860
鬲	5861
獠	5862
柒	5863
骧	5864
1848	5865
away	5866
william	5867
326	5868
搀	5869
珩	5870
绦	5871
1879	5872
嚏	5873
710	5874
镛	5875
喱	5876
倏	5877
馋	5878
茭	5879
擘	5880
斫	5881
284	5882
1mg	5883
怂	5884
hdmi	5885
唧	5886
犍	5887
谩	5888
赊	5889
317	5890
271	5891
wu	5892
鬻	5893
禛	5894
15cm	5895
259	5896
840	5897
feel	5898
485	5899
圻	5900
10m	5901
蹶	5902
5kg	5903
1877	5904
1873	5905
缄	5906
瘿	5907
黠	5908
甑	5909
矸	5910
嘀	5911
il	5912
蹼	5913
jack	5914
lee	5915
269	5916
叼	5917
di	5918
313	5919
旻	5920
auc	5921
502	5922
1350	5923
鹜	5924
289	5925
fc	5926
稗	5927
336	5928
999	5929
association	5930
many	5931
293	5932
雒	5933
george	5934
td	5935
赉	5936
style	5937
馔	5938
颦	5939
ul	5940
ld50	5941
1867	5942
颔	5943
掇	5944
1863	5945
each	5946
赅	5947
桎	5948
inc	5949
痧	5950
dv	5951
谄	5952
孛	5953
笆	5954
鲶	5955
铳	5956
3100	5957
mc	5958
tell	5959
4m	5960
blue	5961
327	5962
299	5963
bios	5964
龋	5965
385	5966
盱	5967
笏	5968
2030	5969
窕	5970
苴	5971
314	5972
big	5973
1866	5974
296	5975
萋	5976
355	5977
辘	5978
琬	5979
cu	5980
梏	5981
much	5982
蚧	5983
3400	5984
1280	5985
镳	5986
24h	5987
own	5988
670	5989
studio	5990
瞅	5991
keep	5992
6g	5993
ppt	5994
conference	5995
around	5996
information	5997
睬	5998
1878	5999
class	6000
偌	6001
鲵	6002
惦	6003
1830	6004
蜍	6005
mp4	6006
why	6007
靼	6008
1851	6009
332	6010
阗	6011
菟	6012
黝	6013
1650	6014
control	6015
挈	6016
嵴	6017
剡	6018
358	6019
楸	6020
dha	6021
氤	6022
m1	6023
vr	6024
呎	6025
珲	6026
5ml	6027
馄	6028
滂	6029
338	6030
蹉	6031
蓑	6032
锷	6033
297	6034
279	6035
啜	6036
1644	6037
sm	6038
婵	6039
well	6040
鬣	6041
7cm	6042
钿	6043
bbs	6044
晌	6045
蛆	6046
隗	6047
酞	6048
枞	6049
352	6050
work	6051
always	6052
9g	6053
戬	6054
獾	6055
镕	6056
star	6057
easy	6058
饨	6059
娣	6060
缰	6061
邾	6062
334	6063
8m	6064
ni	6065
鹗	6066
277	6067
425	6068
end	6069
had	6070
嗒	6071
苋	6072
薮	6073
棹	6074
type	6075
richard	6076
880	6077
6m	6078
拄	6079
air	6080
埕	6081
勖	6082
鹞	6083
殚	6084
鲢	6085
pop	6086
a4	6087
1750	6088
ftp	6089
16000	6090
啖	6091
ad	6092
沣	6093
501	6094
靥	6095
葭	6096
诿	6097
htc	6098
鸪	6099
007	6100
饴	6101
t1	6102
疖	6103
抟	6104
睽	6105
770	6106
access	6107
tcl	6108
稞	6109
吋	6110
谀	6111
澍	6112
杈	6113
妤	6114
sata	6115
part	6116
峄	6117
systems	6118
漉	6119
40000	6120
ever	6121
気	6122
368	6123
咲	6124
qs	6125
ta	6126
璘	6127
ltd	6128
mol	6129
media	6130
萜	6131
僭	6132
朐	6133
742	6134
1855	6135
cc	6136
圜	6137
癞	6138
藿	6139
555	6140
珉	6141
isp	6142
set	6143
1450	6144
陉	6145
him	6146
僮	6147
292	6148
膻	6149
1853	6150
薹	6151
810	6152
汊	6153
still	6154
锗	6155
昉	6156
pvp	6157
猗	6158
http	6159
1859	6160
3700	6161
strong	6162
3a	6163
锶	6164
real	6165
跛	6166
art	6167
1869	6168
331	6169
1368	6170
嘹	6171
337	6172
瓤	6173
402	6174
衄	6175
1856	6176
1820	6177
1150	6178
matlab	6179
豕	6180
吆	6181
腆	6182
thomas	6183
a2	6184
294	6185
le	6186
366	6187
using	6188
356	6189
bb	6190
喆	6191
smith	6192
different	6193
莴	6194
401	6195
谌	6196
ci	6197
珙	6198
疥	6199
kw	6200
鲑	6201
405	6202
玷	6203
蛔	6204
砀	6205
361	6206
zh	6207
nasa	6208
materials	6209
329	6210
nature	6211
1h	6212
谔	6213
睥	6214
ch	6215
20mg	6216
2mg	6217
du	6218
mail	6219
data	6220
every	6221
蹑	6222
诒	6223
逋	6224
372	6225
while	6226
姝	6227
刈	6228
婧	6229
going	6230
喳	6231
镞	6232
铌	6233
291	6234
712	6235
辎	6236
鹧	6237
檩	6238
740	6239
扪	6240
10ml	6241
霰	6242
ar	6243
裆	6244
ol	6245
嬷	6246
0mm	6247
ufo	6248
charles	6249
20mm	6250
tvb	6251
apple	6252
刎	6253
iec	6254
project	6255
sbs	6256
嵋	6257
342	6258
690	6259
悱	6260
920	6261
嘤	6262
jean	6263
篁	6264
荸	6265
瞑	6266
殓	6267
搽	6268
50mg	6269
343	6270
橇	6271
include	6272
eva	6273
雎	6274
弭	6275
獐	6276
haccp	6277
恿	6278
video	6279
cf	6280
vpn	6281
society	6282
眦	6283
730	6284
铐	6285
song	6286
尕	6287
捎	6288
诟	6289
institute	6290
痨	6291
cn	6292
369	6293
笞	6294
756	6295
version	6296
des	6297
sns	6298
趺	6299
590	6300
award	6301
唬	6302
苣	6303
css	6304
lte	6305
xu	6306
fbi	6307
啾	6308
瘪	6309
垸	6310
357	6311
橹	6312
after	6313
濛	6314
曷	6315
level	6316
樾	6317
very	6318
汨	6319
仟	6320
姒	6321
1858	6322
again	6323
怦	6324
荏	6325
tom	6326
诤	6327
苡	6328
吭	6329
830	6330
dm	6331
before	6332
406	6333
崆	6334
氡	6335
young	6336
脩	6337
lan	6338
胝	6339
钏	6340
3ds	6341
cr	6342
arm	6343
pos	6344
night	6345
屐	6346
395	6347
忐	6348
彧	6349
拚	6350
鏖	6351
344	6352
100ml	6353
525	6354
孳	6355
1024	6356
yu	6357
忑	6358
384	6359
邝	6360
穰	6361
403	6362
摈	6363
庖	6364
351	6365
鸵	6366
398	6367
hello	6368
矽	6369
354	6370
鲟	6371
said	6372
381	6373
768	6374
発	6375
762	6376
sap	6377
1854	6378
msn	6379
菅	6380
book	6381
353	6382
true	6383
339	6384
javascript	6385
348	6386
2900	6387
圪	6388
蹋	6389
衾	6390
簋	6391
璎	6392
367	6393
噎	6394
911	6395
嬗	6396
346	6397
肼	6398
362	6399
359	6400
跎	6401
滟	6402
little	6403
4300	6404
701	6405
戦	6406
嵬	6407
look	6408
仝	6409
phys	6410
club	6411
惇	6412
纾	6413
times	6414
14000	6415
炁	6416
382	6417
xyz	6418
number	6419
ak	6420
mind	6421
huang	6422
闳	6423
骐	6424
秣	6425
眙	6426
谘	6427
碓	6428
iso9002	6429
疔	6430
412	6431
恂	6432
am	6433
top	6434
master	6435
鳕	6436
green	6437
鸱	6438
int	6439
爨	6440
镊	6441
404	6442
were	6443
4600	6444
em	6445
better	6446
钯	6447
圮	6448
楽	6449
堀	6450
1852	6451
408	6452
sat	6453
1857	6454
378	6455
422	6456
膘	6457
705	6458
噗	6459
347	6460
start	6461
486	6462
锹	6463
505	6464
杼	6465
酊	6466
same	6467
376	6468
white	6469
挎	6470
箸	6471
郗	6472
垌	6473
sa	6474
溏	6475
martin	6476
蔫	6477
偻	6478
364	6479
妫	6480
飚	6481
625	6482
601	6483
辔	6484
濬	6485
666	6486
ds	6487
瑄	6488
621	6489
觚	6490
5600	6491
nhk	6492
415	6493
express	6494
铍	6495
bit	6496
跚	6497
9mm	6498
翕	6499
煊	6500
these	6501
50mm	6502
gpu	6503
b6	6504
hip	6505
耄	6506
铋	6507
篦	6508
zhou	6509
阇	6510
骛	6511
nvidia	6512
莪	6513
吲	6514
youtube	6515
唁	6516
870	6517
箧	6518
503	6519
tm	6520
8500	6521
really	6522
珅	6523
潋	6524
迨	6525
哽	6526
without	6527
砦	6528
model	6529
缗	6530
hey	6531
謇	6532
呸	6533
mrna	6534
垓	6535
糍	6536
park	6537
wap	6538
璠	6539
妣	6540
狎	6541
攥	6542
396	6543
闇	6544
york	6545
蛉	6546
瑁	6547
joe	6548
腼	6549
蹒	6550
great	6551
review	6552
200mg	6553
chris	6554
www	6555
嶷	6556
online	6557
莠	6558
沤	6559
哚	6560
475	6561
遑	6562
v1	6563
such	6564
跺	6565
膦	6566
蹿	6567
unix	6568
hard	6569
40cm	6570
50cm	6571
nothing	6572
郫	6573
zhao	6574
玳	6575
ma	6576
boy	6577
埚	6578
url	6579
432	6580
network	6581
aaaa	6582
衿	6583
371	6584
try	6585
醪	6586
full	6587
挹	6588
raid	6589
bg	6590
绡	6591
汜	6592
digital	6593
mb	6594
c1	6595
坩	6596
ccc	6597
旃	6598
5200	6599
607	6600
itunes	6601
powerpoint	6602
鸨	6603
between	6604
407	6605
翈	6606
1842	6607
1844	6608
435	6609
838	6610
抡	6611
chemistry	6612
team	6613
party	6614
die	6615
晞	6616
place	6617
care	6618
盥	6619
藁	6620
蓖	6621
383	6622
cv	6623
臊	6624
made	6625
state	6626
465	6627
羰	6628
388	6629
1620	6630
sas	6631
楝	6632
噱	6633
ji	6634
饽	6635
苌	6636
soho	6637
褓	6638
佶	6639
mp	6640
581	6641
years	6642
1260	6643
1680	6644
hop	6645
稜	6646
瞠	6647
仡	6648
25mm	6649
605	6650
423	6651
341	6652
363	6653
374	6654
627	6655
text	6656
development	6657
518	6658
伉	6659
襁	6660
ug	6661
change	6662
713	6663
涞	6664
1849	6665
蜇	6666
抿	6667
瑗	6668
pda	6669
418	6670
un	6671
line	6672
958	6673
孱	6674
懑	6675
416	6676
von	6677
373	6678
淦	6679
赝	6680
core	6681
dns	6682
747	6683
427	6684
387	6685
would	6686
ipo	6687
醌	6688
551	6689
缫	6690
蠲	6691
alt	6692
嚓	6693
鲷	6694
湫	6695
捋	6696
1845	6697
咩	6698
裏	6699
avi	6700
犒	6701
2050	6702
墀	6703
yeah	6704
god	6705
445	6706
lesson	6707
硐	6708
蔸	6709
399	6710
758	6711
pu	6712
computer	6713
456	6714
钽	6715
1847	6716
麂	6717
brown	6718
store	6719
蒡	6720
鼹	6721
绻	6722
1821	6723
錾	6724
仃	6725
515	6726
篙	6727
蕤	6728
589	6729
applied	6730
737	6731
930	6732
c3	6733
1841	6734
铤	6735
billboard	6736
apec	6737
槁	6738
牖	6739
螈	6740
mary	6741
俦	6742
family	6743
笄	6744
color	6745
啻	6746
対	6747
jsp	6748
郤	6749
next	6750
iq	6751
645	6752
506	6753
hbv	6754
闼	6755
a3	6756
349	6757
value	6758
413	6759
igg	6760
411	6761
426	6762
醺	6763
赍	6764
檗	6765
usa	6766
裾	6767
head	6768
噫	6769
掸	6770
mike	6771
箓	6772
usb2	6773
things	6774
5800	6775
5v	6776
o2	6777
妪	6778
乂	6779
蝈	6780
砻	6781
胍	6782
220v	6783
392	6784
cba	6785
397	6786
535	6787
idc	6788
analysis	6789
25mg	6790
蜱	6791
ti	6792
2h	6793
聃	6794
雠	6795
碚	6796
椤	6797
缯	6798
昴	6799
890	6800
缱	6801
祎	6802
der	6803
缬	6804
ex	6805
508	6806
铙	6807
cnc	6808
pentium	6809
孀	6810
533	6811
advanced	6812
mpa	6813
yl	6814
笳	6815
蘇	6816
愆	6817
685	6818
榉	6819
old	6820
氙	6821
call	6822
alex	6823
燹	6824
撂	6825
菽	6826
583	6827
箬	6828
蛄	6829
瘸	6830
嬛	6831
495	6832
橐	6833
could	6834
60000	6835
something	6836
纡	6837
刽	6838
辂	6839
hong	6840
377	6841
law	6842
蒯	6843
邨	6844
1846	6845
1550	6846
r2	6847
1837	6848
赀	6849
player	6850
414	6851
跸	6852
phone	6853
邙	6854
hold	6855
rgb	6856
421	6857
henry	6858
2025	6859
黟	6860
409	6861
磴	6862
1815	6863
mode	6864
1843	6865
闿	6866
504	6867
letters	6868
1780	6869
428	6870
垟	6871
389	6872
t2	6873
london	6874
528	6875
jpeg	6876
嵯	6877
钚	6878
steve	6879
跄	6880
30min	6881
527	6882
潸	6883
h2	6884
35000	6885
崴	6886
eric	6887
379	6888
run	6889
three	6890
rf	6891
left	6892
455	6893
恁	6894
open	6895
楮	6896
556	6897
bc	6898
476	6899
腧	6900
458	6901
plus	6902
1812	6903
1839	6904
胨	6905
b12	6906
4d	6907
芫	6908
america	6909
est	6910
dream	6911
碴	6912
隰	6913
杓	6914
md	6915
ya	6916
global	6917
436	6918
15mm	6919
2ml	6920
貉	6921
欹	6922
sup3	6923
侑	6924
ea	6925
鳜	6926
910	6927
ben	6928
铄	6929
椴	6930
昇	6931
醍	6932
1020	6933
798	6934
midi	6935
肓	6936
features	6937
lc	6938
brian	6939
akb48	6940
缂	6941
1835	6942
test	6943
铡	6944
light	6945
978	6946
s1	6947
1799	6948
key	6949
sim	6950
1795	6951
simple	6952
energy	6953
蹠	6954
徂	6955
west	6956
725	6957
body	6958
豢	6959
424	6960
face	6961
蒽	6962
lin	6963
805	6964
1120	6965
479	6966
菡	6967
bill	6968
433	6969
衲	6970
阚	6971
believe	6972
brt	6973
pa	6974
last	6975
芗	6976
hu	6977
sam	6978
wei	6979
adsl	6980
602	6981
mk	6982
痍	6983
玠	6984
1832	6985
523	6986
晷	6987
604	6988
jj	6989
468	6990
淝	6991
1560	6992
鄯	6993
ck	6994
473	6995
糗	6996
耨	6997
榧	6998
394	6999
940	7000
eq	7001
498	7002
used	7003
sc	7004
胴	7005
c2	7006
蕈	7007
screen	7008
镬	7009
635	7010
鼾	7011
431	7012
education	7013
wwe	7014
摭	7015
鸮	7016
cl	7017
5400	7018
fpga	7019
恚	7020
419	7021
実	7022
asia	7023
534	7024
552	7025
砝	7026
100mm	7027
pid	7028
741	7029
珣	7030
under	7031
603	7032
寤	7033
埙	7034
mbc	7035
tc	7036
xxx	7037
didn	7038
478	7039
mn	7040
p1	7041
锏	7042
simon	7043
ansi	7044
438	7045
hi	7046
615	7047
喟	7048
蘅	7049
骺	7050
cell	7051
捭	7052
study	7053
586	7054
393	7055
莜	7056
should	7057
xi	7058
缶	7059
f2	7060
games	7061
0g	7062
1760	7063
mini	7064
johnson	7065
jones	7066
yes	7067
锟	7068
1825	7069
叵	7070
cm3	7071
炷	7072
1580	7073
stay	7074
675	7075
another	7076
6800	7077
鲧	7078
1736	7079
ps2	7080
胼	7081
517	7082
査	7083
岬	7084
2019	7085
1640	7086
rose	7087
鹂	7088
牯	7089
珥	7090
entertainment	7091
448	7092
und	7093
496	7094
莼	7095
software	7096
970	7097
邠	7098
5300	7099
h1n1	7100
488	7101
da	7102
眇	7103
卟	7104
変	7105
20m	7106
may	7107
417	7108
lady	7109
galaxy	7110
4100	7111
惴	7112
1789	7113
846	7114
801	7115
渑	7116
907	7117
put	7118
蚱	7119
gone	7120
606	7121
t3	7122
company	7123
632	7124
454	7125
516	7126
998	7127
548	7128
391	7129
4700	7130
瞌	7131
ide	7132
瘰	7133
7200	7134
佝	7135
together	7136
street	7137
旸	7138
626	7139
衽	7140
郅	7141
奁	7142
731	7143
30mg	7144
mvp	7145
1370	7146
60cm	7147
12cm	7148
魑	7149
1828	7150
628	7151
everything	7152
612	7153
san	7154
937	7155
缛	7156
2gb	7157
lu	7158
angel	7159
20ml	7160
576	7161
颙	7162
sony	7163
790	7164
press	7165
镫	7166
hall	7167
簌	7168
beautiful	7169
豇	7170
711	7171
453	7172
pm	7173
姹	7174
thing	7175
442	7176
邋	7177
alpha	7178
leave	7179
暝	7180
441	7181
30mm	7182
chapter	7183
507	7184
100000	7185
526	7186
directx	7187
511	7188
9cm	7189
words	7190
釐	7191
619	7192
洹	7193
444	7194
frank	7195
咿	7196
eyes	7197
483	7198
俳	7199
522	7200
蜊	7201
醐	7202
541	7203
water	7204
499	7205
聩	7206
non	7207
bob	7208
坻	7209
532	7210
757	7211
545	7212
毽	7213
oo	7214
喾	7215
alone	7216
scott	7217
744	7218
辋	7219
river	7220
zhu	7221
倌	7222
媪	7223
蛳	7224
滹	7225
哙	7226
nc	7227
20g	7228
阊	7229
gs	7230
queen	7231
趸	7232
1130	7233
1645	7234
祢	7235
4mg	7236
1814	7237
girls	7238
544	7239
e1	7240
籀	7241
1210	7242
1573	7243
徼	7244
ipv6	7245
訾	7246
髁	7247
1a	7248
jackson	7249
砜	7250
1836	7251
les	7252
4gb	7253
撸	7254
瓘	7255
1790	7256
缁	7257
镓	7258
sars	7259
eps	7260
519	7261
sod	7262
bp	7263
1810	7264
year	7265
縻	7266
sound	7267
617	7268
菀	7269
1125	7270
598	7271
酢	7272
桠	7273
466	7274
emc	7275
撵	7276
怏	7277
429	7278
1838	7279
ready	7280
渌	7281
546	7282
taylor	7283
452	7284
news	7285
1180	7286
568	7287
2a	7288
af	7289
538	7290
list	7291
hot	7292
1380	7293
etc	7294
1796	7295
摞	7296
mo	7297
槲	7298
levels	7299
ht	7300
浠	7301
诜	7302
魉	7303
韫	7304
daniel	7305
亓	7306
盤	7307
pv	7308
瑭	7309
魍	7310
1831	7311
emi	7312
襞	7313
social	7314
dreamweaver	7315
爿	7316
kbs	7317
565	7318
613	7319
990	7320
浃	7321
樯	7322
jb	7323
讵	7324
揩	7325
physics	7326
耋	7327
帏	7328
lng	7329
崃	7330
bs	7331
457	7332
enough	7333
shy	7334
521	7335
596	7336
ec	7337
451	7338
鸩	7339
遢	7340
turn	7341
臃	7342
available	7343
4400	7344
585	7345
粿	7346
1010	7347
禳	7348
hand	7349
439	7350
536	7351
桫	7352
link	7353
side	7354
earth	7355
mx	7356
髹	7357
7m	7358
482	7359
诳	7360
472	7361
1140	7362
707	7363
622	7364
wcdma	7365
513	7366
must	7367
492	7368
462	7369
踉	7370
40mg	7371
948	7372
cmax	7373
郃	7374
1320	7375
v2	7376
542	7377
email	7378
493	7379
嗖	7380
sup	7381
讧	7382
cnn	7383
446	7384
碁	7385
17000	7386
湎	7387
30m	7388
529	7389
653	7390
531	7391
575	7392
阏	7393
sr	7394
united	7395
pm2	7396
mt	7397
媾	7398
443	7399
様	7400
aac	7401
806	7402
哔	7403
舸	7404
vb	7405
611	7406
曩	7407
821	7408
gre	7409
gl	7410
cisco	7411
忝	7412
峁	7413
掂	7414
464	7415
葳	7416
487	7417
437	7418
including	7419
715	7420
鄄	7421
558	7422
both	7423
谵	7424
463	7425
jim	7426
608	7427
m4	7428
5100	7429
彊	7430
锴	7431
war	7432
郜	7433
money	7434
481	7435
葖	7436
1824	7437
tnt	7438
蓇	7439
瓴	7440
鳟	7441
橼	7442
5s	7443
louis	7444
434	7445
鲇	7446
邗	7447
el	7448
犄	7449
秭	7450
3900	7451
records	7452
view	7453
chemical	7454
1001	7455
1mol	7456
dance	7457
668	7458
dl	7459
槭	7460
缵	7461
que	7462
624	7463
rt	7464
1823	7465
1805	7466
005	7467
1826	7468
巯	7469
sgs	7470
user	7471
龊	7472
qc	7473
狍	7474
island	7475
language	7476
space	7477
擞	7478
saint	7479
2n	7480
pt	7481
share	7482
瞽	7483
hotel	7484
christian	7485
557	7486
栲	7487
撅	7488
2b	7489
1801	7490
447	7491
1822	7492
瑀	7493
smt	7494
hk	7495
1834	7496
戢	7497
825	7498
50ml	7499
朓	7500
逖	7501
general	7502
椹	7503
nm	7504
洺	7505
cae	7506
484	7507
艏	7508
wma	7509
zn	7510
苁	7511
single	7512
599	7513
c4	7514
滘	7515
777	7516
铧	7517
侪	7518
ocirc	7519
1kg	7520
684	7521
豳	7522
skf	7523
12mm	7524
489	7525
hla	7526
竦	7527
貔	7528
ld	7529
being	7530
562	7531
圄	7532
van	7533
gm	7534
688	7535
655	7536
special	7537
呷	7538
edition	7539
1s	7540
jiang	7541
131108	7542
514	7543
1792	7544
ncaa	7545
1833	7546
旄	7547
遛	7548
jr	7549
program	7550
656	7551
467	7552
ing	7553
901	7554
755	7555
509	7556
芈	7557
kong	7558
rp	7559
砣	7560
桷	7561
audio	7562
icp	7563
happy	7564
龌	7565
done	7566
疬	7567
japan	7568
ts	7569
mit	7570
p2	7571
524	7572
looking	7573
miss	7574
缟	7575
582	7576
洌	7577
35mm	7578
494	7579
grand	7580
跏	7581
those	7582
joseph	7583
ctrl	7584
547	7585
1040	7586
686	7587
蝮	7588
lp	7589
cod	7590
菰	7591
sio2	7592
txt	7593
1770	7594
1060	7595
帑	7596
767	7597
north	7598
fcc	7599
怙	7600
ester	7601
718	7602
story	7603
edi	7604
634	7605
1360	7606
豸	7607
1660	7608
lh	7609
雩	7610
1230	7611
magic	7612
誊	7613
549	7614
臬	7615
4k	7616
op	7617
1662	7618
651	7619
镣	7620
箇	7621
616	7622
title	7623
sciences	7624
25cm	7625
踱	7626
s2	7627
t4	7628
钍	7629
648	7630
100m	7631
543	7632
588	7633
苫	7634
554	7635
蝽	7636
r1	7637
3mg	7638
amino	7639
1776	7640
浯	7641
609	7642
772	7643
ca2	7644
vlan	7645
469	7646
500mg	7647
単	7648
road	7649
亶	7650
636	7651
metal	7652
device	7653
40mm	7654
囹	7655
穑	7656
1730	7657
佻	7658
1818	7659
绌	7660
12g	7661
537	7662
诔	7663
pve	7664
autodesk	7665
477	7666
v8	7667
ray	7668
gp	7669
span	7670
gc	7671
size	7672
716	7673
鹬	7674
ssl	7675
crt	7676
1670	7677
925	7678
髌	7679
pn	7680
1127	7681
702	7682
658	7683
services	7684
support	7685
1802	7686
蒌	7687
coming	7688
experience	7689
nbc	7690
鳏	7691
631	7692
638	7693
ace	7694
0cm	7695
ems	7696
9001	7697
殄	7698
yen	7699
soc	7700
ethyl	7701
怛	7702
tf	7703
筌	7704
刳	7705
studies	7706
theory	7707
1030	7708
578	7709
radio	7710
翮	7711
卍	7712
畹	7713
471	7714
704	7715
because	7716
1610	7717
箜	7718
save	7719
燔	7720
赳	7721
553	7722
1809	7723
篌	7724
窨	7725
翥	7726
785	7727
炅	7728
钕	7729
lett	7730
803	7731
1827	7732
academy	7733
ed	7734
629	7735
sf	7736
pr	7737
hill	7738
explorer	7739
future	7740
food	7741
莳	7742
662	7743
567	7744
dcs	7745
忖	7746
戡	7747
1086	7748
1190	7749
1829	7750
bad	7751
es	7752
15m	7753
order	7754
spring	7755
沢	7756
south	7757
497	7758
025	7759
move	7760
狒	7761
1630	7762
圉	7763
abb	7764
449	7765
learn	7766
l0	7767
d2	7768
5d	7769
wav	7770
琯	7771
邰	7772
cis	7773
quality	7774
odm	7775
926	7776
acta	7777
root	7778
smart	7779
1661	7780
苾	7781
cm2	7782
photos	7783
l2	7784
via	7785
sk	7786
犸	7787
623	7788
邡	7789
feeling	7790
572	7791
郏	7792
襦	7793
python	7794
bmw	7795
888	7796
guo	7797
epa	7798
williams	7799
沆	7800
813	7801
bot	7802
read	7803
function	7804
wilson	7805
1723	7806
enterprise	7807
玟	7808
50hz	7809
s26	7810
fire	7811
engineer	7812
tony	7813
1819	7814
濉	7815
rh	7816
洎	7817
莨	7818
氘	7819
pb	7820
咛	7821
1720	7822
佺	7823
1460	7824
815	7825
cbs	7826
腩	7827
beta	7828
鳔	7829
1735	7830
yan	7831
1gb	7832
x2	7833
剜	7834
秕	7835
牝	7836
芨	7837
din	7838
関	7839
del	7840
sms	7841
649	7842
pal	7843
1369	7844
far	7845
maya	7846
654	7847
拊	7848
812	7849
595	7850
竑	7851
50m	7852
圹	7853
close	7854
eos	7855
颡	7856
1420	7857
6300	7858
1816	7859
wrong	7860
break	7861
573	7862
765	7863
file	7864
friend	7865
002	7866
摺	7867
683	7868
nx	7869
沩	7870
蜉	7871
please	7872
1170	7873
ro	7874
6400	7875
筚	7876
nick	7877
acm	7878
愔	7879
ati	7880
point	7881
肟	7882
766	7883
俶	7884
fast	7885
ata	7886
d1	7887
678	7888
geforce	7889
1710	7890
yahoo	7891
堃	7892
绉	7893
mysql	7894
1793	7895
奭	7896
gap	7897
iso14000	7898
uk	7899
astm	7900
h2o	7901
n2	7902
film	7903
method	7904
1804	7905
罅	7906
so2	7907
嗳	7908
665	7909
adam	7910
uc	7911
蜢	7912
1806	7913
1775	7914
photo	7915
疠	7916
474	7917
image	7918
200mm	7919
sure	7920
561	7921
帔	7922
髡	7923
643	7924
黥	7925
1813	7926
proceedings	7927
褛	7928
柰	7929
beyond	7930
royal	7931
else	7932
eda	7933
808	7934
ddr	7935
gif	7936
鏊	7937
l1	7938
痼	7939
571	7940
waiting	7941
堞	7942
code	7943
652	7944
rss	7945
learning	7946
嗝	7947
461	7948
beijing	7949
娉	7950
566	7951
577	7952
708	7953
1520	7954
689	7955
kevin	7956
human	7957
661	7958
539	7959
875	7960
1811	7961
ssci	7962
6600	7963
戕	7964
587	7965
735	7966
3s	7967
铱	7968
耜	7969
觥	7970
867	7971
镒	7972
584	7973
呓	7974
1522	7975
904	7976
case	7977
1101	7978
491	7979
1080p	7980
history	7981
蒹	7982
栱	7983
im	7984
564	7985
f4	7986
卮	7987
琚	7988
salt	7989
jason	7990
rohs	7991
12v	7992
hydroxy	7993
逦	7994
modem	7995
font	7996
酩	7997
蓍	7998
cry	7999
65536	8000
health	8001
虺	8002
1798	8003
tonight	8004
small	8005
谠	8006
1570	8007
1220	8008
jane	8009
against	8010
597	8011
751	8012
459	8013
bd	8014
鼋	8015
焗	8016
udp	8017
process	8018
1070	8019
1807	8020
children	8021
8g	8022
eb	8023
62mm	8024
22000	8025
add	8026
1440	8027
褴	8028
rm	8029
25g	8030
ccedil	8031
706	8032
714	8033
5l	8034
砒	8035
赧	8036
蛏	8037
709	8038
蚬	8039
1530	8040
瘕	8041
5h	8042
559	8043
jay	8044
iga	8045
020	8046
fall	8047
scsi	8048
顗	8049
isdn	8050
death	8051
563	8052
today	8053
愠	8054
dvi	8055
勣	8056
wait	8057
1642	8058
飕	8059
徳	8060
滢	8061
琇	8062
鳙	8063
db	8064
瞟	8065
尻	8066
force	8067
400mg	8068
澶	8069
荽	8070
舐	8071
arts	8072
ha	8073
east	8074
lost	8075
effects	8076
1628	8077
album	8078
harry	8079
633	8080
dark	8081
public	8082
2250	8083
soul	8084
826	8085
659	8086
exo	8087
侂	8088
733	8089
se	8090
黼	8091
icu	8092
4h	8093
market	8094
潟	8095
7800	8096
绂	8097
瘗	8098
ngc	8099
1794	8100
crazy	8101
蓥	8102
竽	8103
濞	8104
igm	8105
scdma	8106
6200	8107
cb	8108
835	8109
699	8110
骖	8111
偁	8112
bmp	8113
809	8114
1270	8115
oled	8116
応	8117
1160	8118
1621	8119
锜	8120
g3	8121
ova	8122
cheng	8123
614	8124
匏	8125
thinkpad	8126
赑	8127
fps	8128
create	8129
kim	8130
讦	8131
1480	8132
诨	8133
1540	8134
rev	8135
1v1	8136
罘	8137
fans	8138
巖	8139
1740	8140
ag	8141
嫘	8142
1649	8143
ps3	8144
908	8145
颀	8146
g1	8147
703	8148
岿	8149
v3	8150
虻	8151
936	8152
fl	8153
c2c	8154
罴	8155
environmental	8156
paris	8157
594	8158
hear	8159
囗	8160
jump	8161
communications	8162
溆	8163
talk	8164
噤	8165
824	8166
骝	8167
003	8168
咂	8169
695	8170
728	8171
e2	8172
nec	8173
iptv	8174
1797	8175
kelly	8176
500ml	8177
锛	8178
721	8179
rc	8180
1808	8181
ldl	8182
1240	8183
槊	8184
radeon	8185
676	8186
啕	8187
tang	8188
plant	8189
50g	8190
驽	8191
professional	8192
凇	8193
698	8194
s36	8195
lord	8196
search	8197
alan	8198
籴	8199
pd	8200
1403	8201
硖	8202
1791	8203
816	8204
1636	8205
3h	8206
gsp	8207
811	8208
sky	8209
1632	8210
铯	8211
christmas	8212
怿	8213
笥	8214
matter	8215
574	8216
噙	8217
倨	8218
effect	8219
647	8220
779	8221
1803	8222
657	8223
sorry	8224
awards	8225
igbt	8226
pwm	8227
坭	8228
醅	8229
sos	8230
976	8231
592	8232
滏	8233
10min	8234
682	8235
cs3	8236
悻	8237
did	8238
mater	8239
579	8240
聒	8241
1724	8242
feng	8243
low	8244
mhz	8245
836	8246
722	8247
枥	8248
726	8249
昺	8250
bank	8251
memory	8252
rap	8253
975	8254
663	8255
ips	8256
酆	8257
2kg	8258
787	8259
簟	8260
睇	8261
轫	8262
溱	8263
骢	8264
榘	8265
642	8266
珺	8267
跹	8268
677	8269
series	8270
nlp	8271
raquo	8272
蚶	8273
stone	8274
1672	8275
1817	8276
1646	8277
827	8278
驺	8279
ko	8280
security	8281
perfect	8282
alexander	8283
746	8284
tt	8285
check	8286
804	8287
饧	8288
15mg	8289
sir	8290
moon	8291
doesn	8292
591	8293
inside	8294
tim	8295
672	8296
641	8297
噼	8298
儆	8299
1w	8300
氚	8301
646	8302
哧	8303
1783	8304
旒	8305
鸬	8306
1648	8307
夥	8308
ev	8309
1688	8310
score	8311
standard	8312
玦	8313
723	8314
貅	8315
揄	8316
戗	8317
fx	8318
938	8319
璩	8320
fu	8321
1654	8322
剐	8323
010	8324
cpi	8325
垴	8326
蘼	8327
hz	8328
1521	8329
1067	8330
727	8331
ah	8332
lv	8333
916	8334
裒	8335
639	8336
han	8337
躅	8338
1715	8339
唳	8340
form	8341
second	8342
嗑	8343
荦	8344
674	8345
霈	8346
jin	8347
缦	8348
啭	8349
pi	8350
1788	8351
rx	8352
隈	8353
gao	8354
sdk	8355
zheng	8356
悫	8357
745	8358
href	8359
593	8360
ngo	8361
multi	8362
d3	8363
彀	8364
637	8365
1276	8366
悭	8367
found	8368
jis	8369
5700	8370
焓	8371
1234	8372
80cm	8373
磔	8374
aim	8375
1778	8376
蓊	8377
act	8378
569	8379
xiao	8380
郾	8381
717	8382
786	8383
return	8384
5min	8385
1582	8386
etf	8387
1590	8388
action	8389
1625	8390
sarah	8391
yourself	8392
枧	8393
鹚	8394
10kg	8395
80000	8396
検	8397
775	8398
818	8399
stephen	8400
gui	8401
屃	8402
644	8403
9500	8404
v6	8405
馑	8406
wlan	8407
hs	8408
2048	8409
area	8410
1616	8411
andrew	8412
8226	8413
6mg	8414
1567	8415
1763	8416
1470	8417
嗲	8418
pps	8419
铟	8420
rca	8421
pierre	8422
687	8423
null	8424
manager	8425
738	8426
sdh	8427
828	8428
薤	8429
60g	8430
300mg	8431
jun	8432
1685	8433
favorite	8434
making	8435
playing	8436
summer	8437
754	8438
692	8439
涔	8440
樗	8441
664	8442
忾	8443
収	8444
绺	8445
945	8446
h2s	8447
bis	8448
self	8449
300mm	8450
烊	8451
opengl	8452
912	8453
acute	8454
螫	8455
黩	8456
996	8457
magazine	8458
edward	8459
su	8460
elisa	8461
hdl	8462
cyp3a4	8463
鞫	8464
foundation	8465
alice	8466
ddr3	8467
915	8468
923	8469
tbs	8470
andy	8471
field	8472
date	8473
transactions	8474
limited	8475
during	8476
1126	8477
鲠	8478
1057	8479
fan	8480
嘭	8481
缣	8482
845	8483
681	8484
rw	8485
mean	8486
1566	8487
become	8488
economic	8489
852	8490
johnny	8491
蒺	8492
unique	8493
黒	8494
tu	8495
boys	8496
1330	8497
885	8498
getting	8499
cj	8500
1072	8501
nh	8502
ne	8503
band	8504
cool	8505
724	8506
771	8507
骘	8508
氖	8509
content	8510
842	8511
镝	8512
俅	8513
谮	8514
te	8515
9600	8516
drive	8517
phenyl	8518
1275	8519
屦	8520
cao	8521
menu	8522
823	8523
摁	8524
氪	8525
蘧	8526
active	8527
sb	8528
appl	8529
988	8530
1622	8531
伝	8532
1725	8533
zero	8534
1008	8535
3kg	8536
腠	8537
叡	8538
hit	8539
鲂	8540
mi	8541
0kg	8542
748	8543
lite	8544
enjoy	8545
local	8546
789	8547
続	8548
1506	8549
seen	8550
s3	8551
1765	8552
european	8553
讣	8554
gold	8555
1279	8556
736	8557
965	8558
pl	8559
button	8560
耷	8561
1430	8562
986	8563
763	8564
toefl	8565
燊	8566
鸷	8567
jimmy	8568
dota	8569
955	8570
861	8571
猊	8572
732	8573
xbox	8574
days	8575
dan	8576
673	8577
833	8578
囡	8579
崤	8580
4c	8581
economics	8582
23000	8583
agent	8584
html5	8585
points	8586
ryan	8587
shi	8588
砬	8589
湜	8590
reading	8591
918	8592
mine	8593
adc	8594
917	8595
1592	8596
1781	8597
翚	8598
峯	8599
909	8600
once	8601
exchange	8602
choose	8603
current	8604
symbian	8605
ts16949	8606
dave	8607
machine	8608
鲎	8609
qos	8610
蕖	8611
1785	8612
9m	8613
cia	8614
until	8615
cs4	8616
759	8617
f3	8618
903	8619
24000	8620
968	8621
8mg	8622
lewis	8623
鹈	8624
凼	8625
snh48	8626
866	8627
泫	8628
荑	8629
黻	8630
牂	8631
1722	8632
鄣	8633
篑	8634
ho	8635
1110	8636
1784	8637
髭	8638
陬	8639
寔	8640
dt	8641
shanghai	8642
疴	8643
邽	8644
987	8645
45000	8646
1042	8647
喏	8648
彖	8649
sl	8650
saas	8651
814	8652
28000	8653
a5	8654
彘	8655
赟	8656
819	8657
foxpro	8658
shit	8659
822	8660
盹	8661
诮	8662
鸫	8663
per	8664
does	8665
150mm	8666
products	8667
camp	8668
select	8669
capital	8670
茕	8671
corporation	8672
26000	8673
铖	8674
954	8675
dd	8676
闩	8677
string	8678
page	8679
ba	8680
671	8681
読	8682
782	8683
鄜	8684
漈	8685
盍	8686
dlp	8687
729	8688
甭	8689
愎	8690
outlook	8691
wii	8692
ue	8693
1787	8694
festival	8695
communication	8696
channel	8697
gary	8698
1755	8699
1774	8700
8600	8701
copy	8702
150mg	8703
魃	8704
dragon	8705
1056	8706
c5	8707
炆	8708
track	8709
hdpe	8710
liang	8711
鍊	8712
1800mhz	8713
1619	8714
蛐	8715
995	8716
21000	8717
薜	8718
win	8719
1394	8720
1786	8721
rain	8722
楯	8723
table	8724
鲀	8725
逡	8726
itu	8727
applications	8728
mmorpg	8729
嘞	8730
s7	8731
696	8732
侔	8733
1069	8734
觇	8735
lbs	8736
0mg	8737
car	8738
wave	8739
糸	8740
踮	8741
狷	8742
1552	8743
1627	8744
latest	8745
step	8746
886	8747
761	8748
菘	8749
783	8750
寳	8751
esp	8752
扃	8753
865	8754
jazz	8755
k1	8756
fine	8757
child	8758
kind	8759
anna	8760
60mg	8761
997	8762
maria	8763
nk	8764
792	8765
raw	8766
late	8767
soa	8768
905	8769
cai	8770
ttl	8771
delphi	8772
prince	8773
1340	8774
禊	8775
synthesis	8776
喑	8777
rmb	8778
miller	8779
patrick	8780
933	8781
running	8782
50kg	8783
1398	8784
ast	8785
752	8786
location	8787
dead	8788
塍	8789
chateau	8790
allows	8791
forget	8792
tg	8793
921	8794
栝	8795
5w	8796
kiss	8797
1690	8798
691	8799
arthur	8800
瓿	8801
index	8802
csa	8803
rmvb	8804
msc	8805
廨	8806
cas	8807
known	8808
h1	8809
tj	8810
j2ee	8811
asian	8812
841	8813
1227	8814
g20	8815
cross	8816
cos	8817
ntilde	8818
719	8819
貘	8820
dnf	8821
california	8822
france	8823
modern	8824
pacific	8825
769	8826
1066	8827
turbo	8828
753	8829
795	8830
669	8831
1764	8832
868	8833
馕	8834
僰	8835
union	8836
1772	8837
2150	8838
1063	8839
哏	8840
double	8841
fight	8842
858	8843
math	8844
bo	8845
瑷	8846
men	8847
sea	8848
6700	8849
sem	8850
697	8851
疎	8852
882	8853
note	8854
qi	8855
uml	8856
902	8857
1637	8858
tp	8859
1290	8860
1085	8861
776	8862
蝣	8863
怵	8864
阃	8865
dps	8866
1687	8867
弢	8868
镲	8869
hcl	8870
al2o3	8871
js	8872
auto	8873
螅	8874
1683	8875
v5	8876
culture	8877
935	8878
吖	8879
edge	8880
碲	8881
voice	8882
1007	8883
bridge	8884
855	8885
008	8886
夼	8887
茌	8888
battle	8889
嗬	8890
靺	8891
dp	8892
ae	8893
1090	8894
895	8895
1012	8896
1162	8897
bi	8898
778	8899
髀	8900
1575	8901
pcm	8902
15min	8903
1598	8904
铊	8905
secret	8906
739	8907
200m	8908
6h	8909
matt	8910
谡	8911
card	8912
mic	8913
癔	8914
ecu	8915
16mm	8916
984	8917
镠	8918
5km	8919
dhcp	8920
1753	8921
巻	8922
秾	8923
living	8924
gn	8925
1643	8926
framework	8927
菪	8928
679	8929
赜	8930
1782	8931
four	8932
铈	8933
1777	8934
british	8935
shell	8936
santa	8937
yuan	8938
20ma	8939
fly	8940
927	8941
qu	8942
nds	8943
qaq	8944
bar	8945
髙	8946
arp	8947
1667	8948
1773	8949
693	8950
main	8951
鲳	8952
1510	8953
1002	8954
2022	8955
cdna	8956
box	8957
珰	8958
100km	8959
004	8960
畋	8961
bring	8962
泅	8963
959	8964
hpv	8965
makes	8966
cmv	8967
鲅	8968
tmd	8969
1762	8970
854	8971
泚	8972
ghost	8973
short	8974
mcu	8975
1768	8976
cat	8977
963	8978
1757	8979
1206	8980
1207	8981
puzzle	8982
793	8983
central	8984
859	8985
飏	8986
walter	8987
60hz	8988
anderson	8989
1727	8990
thought	8991
屍	8992
仨	8993
864	8994
molecular	8995
856	8996
dong	8997
financial	8998
1728	8999
surface	9000
g2	9001
mf	9002
葚	9003
叻	9004
solidworks	9005
res	9006
speed	9007
1195	9008
咻	9009
ascii	9010
1404	9011
784	9012
jeff	9013
衩	9014
1371	9015
land	9016
biology	9017
1655	9018
郄	9019
otc	9020
sio	9021
1310	9022
1605	9023
蹩	9024
mems	9025
1618	9026
m16	9027
complete	9028
industrial	9029
acs	9030
1603	9031
kids	9032
tour	9033
u2	9034
allen	9035
1756	9036
743	9037
嬖	9038
踽	9039
davis	9040
柽	9041
鞨	9042
65279	9043
7600	9044
30ml	9045
957	9046
0l	9047
734	9048
p450	9049
956	9050
ir	9051
麴	9052
500mm	9053
casio	9054
1038	9055
roger	9056
library	9057
015	9058
1652	9059
薙	9060
within	9061
hands	9062
874	9063
ntsc	9064
钇	9065
whole	9066
jq	9067
氵	9068
垆	9069
post	9070
sweet	9071
wall	9072
898	9073
cs5	9074
feo	9075
9800	9076
cms	9077
1390	9078
since	9079
medical	9080
犟	9081
1492	9082
罍	9083
stand	9084
justin	9085
lake	9086
i5	9087
1729	9088
bell	9089
ruby	9090
important	9091
bout	9092
images	9093
lab	9094
962	9095
1759	9096
rj	9097
cache	9098
nb	9099
production	9100
経	9101
807	9102
1771	9103
doing	9104
粜	9105
tnf	9106
ws	9107
guide	9108
bim	9109
events	9110
1626	9111
1016	9112
焜	9113
performance	9114
ra	9115
zl	9116
牀	9117
1568	9118
1647	9119
埝	9120
洧	9121
1615	9122
shift	9123
788	9124
shen	9125
1588	9126
60mm	9127
覧	9128
tuv	9129
1673	9130
electronic	9131
mos	9132
蓣	9133
8kg	9134
862	9135
echo	9136
1572	9137
section	9138
981	9139
甯	9140
sg	9141
1664	9142
understand	9143
hsk	9144
delta	9145
x86	9146
eap	9147
block	9148
1578	9149
er	9150
xl	9151
蒐	9152
馐	9153
nox	9154
畑	9155
ib	9156
trying	9157
ann	9158
1635	9159
apache	9160
naoh	9161
12345	9162
缑	9163
礽	9164
1624	9165
694	9166
瞋	9167
1601	9168
浍	9169
983	9170
773	9171
1000m	9172
someone	9173
15kg	9174
25m	9175
847	9176
袢	9177
桕	9178
1037	9179
jerry	9180
843	9181
picture	9182
919	9183
e3	9184
printf	9185
3gs	9186
marie	9187
853	9188
rj45	9189
侩	9190
913	9191
896	9192
lose	9193
unicode	9194
100cm	9195
1711	9196
charlie	9197
詈	9198
戸	9199
1689	9200
room	9201
烝	9202
beat	9203
堌	9204
伋	9205
hplc	9206
9300	9207
110kv	9208
nfc	9209
倬	9210
764	9211
iis	9212
圯	9213
solo	9214
碇	9215
ef	9216
round	9217
chang	9218
1366	9219
781	9220
1585	9221
982	9222
socket	9223
df	9224
892	9225
1536	9226
831	9227
ren	9228
6kg	9229
4900	9230
纰	9231
object	9232
forever	9233
832	9234
951	9235
qr	9236
1023	9237
8800	9238
4kg	9239
磾	9240
泔	9241
1131	9242
纮	9243
蓁	9244
971	9245
building	9246
1021	9247
铗	9248
939	9249
弇	9250
挲	9251
crystal	9252
艉	9253
smtp	9254
鱬	9255
cims	9256
fang	9257
1265	9258
trans	9259
pan	9260
1745	9261
1604	9262
泺	9263
橛	9264
817	9265
796	9266
袴	9267
cosplay	9268
1154	9269
1189	9270
749	9271
794	9272
1068	9273
881	9274
hc	9275
hope	9276
1410	9277
couldn	9278
1638	9279
992	9280
along	9281
age	9282
250mg	9283
clear	9284
aps	9285
1631	9286
1011	9287
provides	9288
1123	9289
1701	9290
36000	9291
csf	9292
韪	9293
n1	9294
works	9295
籓	9296
967	9297
ptc	9298
贶	9299
1111	9300
1651	9301
棰	9302
1726	9303
sar	9304
1666	9305
qvga	9306
hf	9307
coreldraw	9308
possible	9309
趵	9310
1629	9311
943	9312
marc	9313
luo	9314
樨	9315
848	9316
county	9317
944	9318
tb	9319
dts	9320
junior	9321
vba	9322
lot	9323
傕	9324
玕	9325
毎	9326
direct	9327
839	9328
繸	9329
2350	9330
774	9331
劵	9332
fsh	9333
wmv	9334
镧	9335
秫	9336
1094	9337
osi	9338
1602	9339
邶	9340
猞	9341
dior	9342
1766	9343
1623	9344
廛	9345
栌	9346
钲	9347
镦	9348
1607	9349
psa	9350
spss	9351
xy	9352
1769	9353
cells	9354
1465	9355
1577	9356
gon	9357
send	9358
vision	9359
thinking	9360
imf	9361
嘏	9362
carl	9363
蝰	9364
32000	9365
bay	9366
928	9367
is09001	9368
镏	9369
20kg	9370
淠	9371
imax	9372
novel	9373
qt	9374
1684	9375
荇	9376
逄	9377
au	9378
author	9379
mod	9380
80mm	9381
1748	9382
849	9383
1612	9384
yet	9385
嘅	9386
929	9387
6l	9388
karl	9389
6100	9390
students	9391
gmat	9392
myself	9393
kate	9394
jpg	9395
979	9396
1752	9397
829	9398
2450	9399
914	9400
876	9401
祕	9402
瑠	9403
48h	9404
mpv	9405
1734	9406
mis	9407
1565	9408
walk	9409
941	9410
1075	9411
1235	9412
natural	9413
k2	9414
977	9415
炝	9416
杪	9417
4050	9418
1669	9419
p3	9420
1004	9421
fn	9422
埴	9423
1555	9424
vmware	9425
chloride	9426
942	9427
steven	9428
1078	9429
獬	9430
966	9431
1135	9432
country	9433
947	9434
柢	9435
捱	9436
跣	9437
887	9438
涑	9439
75mm	9440
1278	9441
1583	9442
western	9443
watch	9444
撃	9445
伢	9446
堠	9447
1045	9448
12m	9449
museum	9450
1215	9451
document	9452
marketing	9453
952	9454
卽	9455
猁	9456
usb3	9457
906	9458
厣	9459
physical	9460
辏	9461
1668	9462
旆	9463
agp	9464
茆	9465
1488	9466
pg	9467
乜	9468
deep	9469
1082	9470
961	9471
踯	9472
1526	9473
#	9474
[	9475
yam	9476
lofter	9477
##s	9478
##0	9479
##a	9480
##2	9481
##1	9482
##3	9483
##e	9484
##8	9485
##5	9486
##6	9487
##4	9488
##9	9489
##7	9490
##t	9491
##o	9492
##d	9493
##i	9494
##n	9495
##m	9496
##c	9497
##l	9498
##y	9499
##r	9500
##g	9501
##p	9502
##f	9503
pixnet	9504
cookies	9505
tripadvisor	9506
##er	9507
##k	9508
##h	9509
##b	9510
##x	9511
##u	9512
##w	9513
##ing	9514
ctrip	9515
##on	9516
##v	9517
llc	9518
##an	9519
##z	9520
blogthis	9521
##le	9522
##in	9523
##mm	9524
##00	9525
ig	9526
##ng	9527
##us	9528
##te	9529
##ed	9530
ncc	9531
blog	9532
##10	9533
##al	9534
##ic	9535
##ia	9536
##q	9537
##ce	9538
##en	9539
##is	9540
##ra	9541
##es	9542
##j	9543
##cm	9544
tw	9545
##ne	9546
##re	9547
##tion	9548
pony	9549
##2017	9550
##ch	9551
##or	9552
##na	9553
cafe	9554
pinterest	9555
pixstyleme3c	9556
##ta	9557
##2016	9558
##ll	9559
##20	9560
##ie	9561
##ma	9562
##17	9563
##ion	9564
##th	9565
##st	9566
##se	9567
##et	9568
##ck	9569
##ly	9570
web885	9571
##ge	9572
xd	9573
##ry	9574
##11	9575
0fork	9576
##12	9577
##ter	9578
##ar	9579
##la	9580
##os	9581
##30	9582
##el	9583
##50	9584
##ml	9585
tue	9586
posted	9587
##at	9588
##man	9589
##15	9590
ago	9591
##it	9592
##me	9593
##de	9594
##nt	9595
##mb	9596
##16	9597
##ve	9598
##da	9599
##ps	9600
##to	9601
https	9602
momo	9603
##son	9604
##ke	9605
##80	9606
ebd	9607
apk	9608
##88	9609
##um	9610
wiki	9611
brake	9612
mon	9613
po	9614
june	9615
##ss	9616
fb	9617
##as	9618
leonardo	9619
safari	9620
##60	9621
wed	9622
win7	9623
kiehl	9624
##co	9625
##go	9626
vfm	9627
kanye	9628
##90	9629
##2015	9630
##id	9631
##ey	9632
##sa	9633
##ro	9634
##am	9635
##no	9636
thu	9637
fri	9638
##sh	9639
##ki	9640
comments	9641
##pe	9642
##ine	9643
uber	9644
##mi	9645
##ton	9646
wordpress	9647
##ment	9648
win10	9649
##ld	9650
##li	9651
gmail	9652
##rs	9653
##ri	9654
##rd	9655
##21	9656
##io	9657
##99	9658
paypal	9659
policy	9660
##40	9661
##ty	9662
##18	9663
##01	9664
##ba	9665
taiwan	9666
##ga	9667
privacy	9668
agoda	9669
##13	9670
##ny	9671
##24	9672
##22	9673
##by	9674
##ur	9675
##hz	9676
##ang	9677
cookie	9678
netscape	9679
##ka	9680
##ad	9681
nike	9682
survey	9683
##016	9684
wikia	9685
##32	9686
##017	9687
cbc	9688
##tor	9689
##kg	9690
##rt	9691
##14	9692
campaign	9693
##ct	9694
##ts	9695
##ns	9696
##ao	9697
##nd	9698
##70	9699
##ya	9700
##il	9701
##25	9702
0020	9703
897	9704
##23	9705
hotels	9706
##ian	9707
6606	9708
##ers	9709
##26	9710
##day	9711
##ay	9712
##line	9713
##be	9714
talk2yam	9715
yamservice	9716
coco	9717
##dy	9718
##ies	9719
##ha	9720
instagram	9721
##ot	9722
##va	9723
##mo	9724
##land	9725
ltxsw	9726
##ation	9727
##pa	9728
##ol	9729
tag	9730
##ue	9731
##31	9732
oppo	9733
##ca	9734
##om	9735
chrome	9736
##ure	9737
lol	9738
##19	9739
##bo	9740
##100	9741
##way	9742
##ko	9743
##do	9744
##un	9745
##ni	9746
herme	9747
##28	9748
##up	9749
##06	9750
##ds	9751
admin	9752
##48	9753
##015	9754
##35	9755
##ee	9756
tpp	9757
##ive	9758
##cc	9759
##ble	9760
##ity	9761
##ex	9762
##ler	9763
##ap	9764
##book	9765
##ice	9766
##km	9767
##mg	9768
##ms	9769
ebay	9770
##29	9771
ubuntu	9772
##cy	9773
##view	9774
##lo	9775
##oo	9776
##02	9777
step1	9778
july	9779
##net	9780
##ls	9781
##ii	9782
##05	9783
##33	9784
step2	9785
ios9	9786
##box	9787
##ley	9788
samsung	9789
pokemon	9790
##ent	9791
##les	9792
s8	9793
atom	9794
##said	9795
##55	9796
##2014	9797
##66	9798
adidas	9799
amazon	9800
##ber	9801
##ner	9802
visa	9803
##77	9804
##der	9805
connectivity	9806
##hi	9807
firefox	9808
skip	9809
##27	9810
##ir	9811
##61	9812
##ai	9813
##ver	9814
cafe2017	9815
##ron	9816
##ster	9817
##sk	9818
##ft	9819
longchamp	9820
ssd	9821
##ti	9822
reply	9823
##my	9824
apr	9825
##ker	9826
source	9827
##one	9828
##2013	9829
##ow	9830
goods	9831
##lin	9832
##ip	9833
##ics	9834
##45	9835
##03	9836
##ff	9837
##47	9838
ganji	9839
##nce	9840
##per	9841
faq	9842
comment	9843
##ock	9844
##bs	9845
##ah	9846
##lv	9847
##mp	9848
##000	9849
melody	9850
17life	9851
##au	9852
##71	9853
##04	9854
##95	9855
##age	9856
tips	9857
##68	9858
##ting	9859
##ung	9860
wonderland	9861
##ction	9862
mar	9863
article	9864
##db	9865
##07	9866
##ore	9867
##op	9868
##78	9869
##38	9870
##ong	9871
##73	9872
##08	9873
##ica	9874
##36	9875
##wa	9876
##64	9877
homemesh	9878
##85	9879
##tv	9880
##di	9881
macbook	9882
##ier	9883
##si	9884
##75	9885
##ok	9886
goris	9887
lock	9888
##ut	9889
carol	9890
##vi	9891
##ac	9892
anti	9893
jan	9894
tags	9895
##98	9896
##51	9897
august	9898
##86	9899
##fs	9900
##sion	9901
jordan	9902
##tt	9903
##lt	9904
##42	9905
##bc	9906
vivi	9907
##rry	9908
##ted	9909
##rn	9910
usd	9911
##t00	9912
##58	9913
##09	9914
##34	9915
goo	9916
##ui	9917
##ary	9918
item	9919
##pm	9920
##41	9921
##za	9922
##2012	9923
blogabstract	9924
##ger	9925
##62	9926
##44	9927
gr2	9928
asus	9929
cindy	9930
##hd	9931
esc	9932
##od	9933
booking	9934
##53	9935
fed	9936
##81	9937
##ina	9938
chan	9939
distribution	9940
steam	9941
pk10	9942
##ix	9943
##65	9944
##91	9945
dec	9946
##ana	9947
icecat	9948
00z	9949
##46	9950
##ji	9951
##ard	9952
oct	9953
##ain	9954
jp	9955
##ze	9956
##bi	9957
cio	9958
##56	9959
h5	9960
##39	9961
##port	9962
curve	9963
##nm	9964
##dia	9965
utc	9966
12345678910	9967
##52	9968
chanel	9969
##and	9970
##im	9971
##63	9972
vera	9973
vivo	9974
##ei	9975
2756	9976
##69	9977
msci	9978
##po	9979
##89	9980
##bit	9981
##out	9982
##zz	9983
##97	9984
##67	9985
opec	9986
##96	9987
##tes	9988
##ast	9989
##ling	9990
##ory	9991
##ical	9992
kitty	9993
##43	9994
step3	9995
##cn	9996
win8	9997
iphone7	9998
beauty	9999
##87	10000
dollars	10001
##ys	10002
##oc	10003
pay	10004
##2011	10005
##lly	10006
##ks	10007
download	10008
sep	10009
##board	10010
##37	10011
##lan	10012
winrar	10013
##que	10014
##ua	10015
##com	10016
ettoday	10017
##54	10018
##ren	10019
##via	10020
##72	10021
##79	10022
##tch	10023
##49	10024
##ial	10025
##nn	10026
step4	10027
2765	10028
gov	10029
##xx	10030
mandy	10031
##ser	10032
copyright	10033
fashion	10034
##ist	10035
##art	10036
##lm	10037
##ek	10038
##ning	10039
##if	10040
##ite	10041
iot	10042
##84	10043
##2010	10044
##ku	10045
october	10046
##ux	10047
trump	10048
##hs	10049
##ide	10050
##ins	10051
april	10052
##ight	10053
##83	10054
protected	10055
##fe	10056
##ho	10057
ofo	10058
gomaji	10059
march	10060
##lla	10061
##pp	10062
##ec	10063
6s	10064
720p	10065
##rm	10066
##ham	10067
##92	10068
fandom	10069
##ell	10070
info	10071
##82	10072
sina	10073
4066	10074
##able	10075
##ctor	10076
rights	10077
jul	10078
##76	10079
mall	10080
##59	10081
donald	10082
sodu	10083
##light	10084
reserved	10085
htm	10086
##han	10087
##57	10088
##ise	10089
##tions	10090
##shi	10091
doc	10092
055	10093
##ram	10094
shopping	10095
aug	10096
##pi	10097
##well	10098
wam	10099
##hu	10100
##gb	10101
##93	10102
mix	10103
##ef	10104
##uan	10105
bwl	10106
##plus	10107
##res	10108
##ess	10109
tea	10110
hktvmall	10111
##ate	10112
##ese	10113
feb	10114
inn	10115
nov	10116
##ci	10117
pass	10118
##bet	10119
##nk	10120
coffee	10121
airbnb	10122
##ute	10123
woshipm	10124
skype	10125
##fc	10126
##www	10127
##94	10128
##ght	10129
##gs	10130
##ile	10131
##wood	10132
##uo	10133
icon	10134
##em	10135
says	10136
##king	10137
##tive	10138
blogger	10139
##74	10140
##ox	10141
##zy	10142
##red	10143
##ium	10144
##lf	10145
nokia	10146
claire	10147
##ding	10148
november	10149
lohas	10150
##500	10151
##tic	10152
##cs	10153
##che	10154
##ire	10155
##gy	10156
##ult	10157
january	10158
ptt	10159
##fa	10160
##mer	10161
pchome	10162
udn	10163
##time	10164
##tte	10165
garden	10166
eleven	10167
309b	10168
bat	10169
##123	10170
##tra	10171
kindle	10172
##ern	10173
xperia	10174
ces	10175
travel	10176
##ous	10177
##int	10178
edu	10179
cho	10180
##car	10181
##our	10182
##ant	10183
rends	10184
##jo	10185
mastercard	10186
##2000	10187
kb	10188
##min	10189
##ino	10190
##ris	10191
##ud	10192
##set	10193
##her	10194
##ou	10195
taipei	10196
##fi	10197
##ill	10198
aphojoy	10199
december	10200
meiki	10201
##ick	10202
tweet	10203
##av	10204
iphone6	10205
##dd	10206
views	10207
##mark	10208
##ash	10209
##ome	10210
koreanmall	10211
##ak	10212
q2	10213
##200	10214
mlb	10215
##lle	10216
##watch	10217
##und	10218
##tal	10219
##less	10220
4399	10221
##rl	10222
update	10223
shop	10224
##mhz	10225
##house	10226
##key	10227
##001	10228
##hy	10229
##web	10230
##2009	10231
##gg	10232
##wan	10233
##val	10234
2021	10235
##ons	10236
doi	10237
trivago	10238
overdope	10239
##ance	10240
573032185	10241
wx17house	10242
##so	10243
audi	10244
##he	10245
##rp	10246
##ake	10247
beach	10248
cfa	10249
ps4	10250
##800	10251
##link	10252
##hp	10253
ferragamo	10254
##eng	10255
##style	10256
##gi	10257
i7	10258
##ray	10259
##max	10260
##pc	10261
september	10262
##ace	10263
vps	10264
february	10265
pantos	10266
wp	10267
lisa	10268
jquery	10269
offer	10270
##berg	10271
##news	10272
fks	10273
##all	10274
##rus	10275
##888	10276
##works	10277
blogtitle	10278
loftpermalink	10279
ling	10280
##ja	10281
outlet	10282
##ea	10283
##top	10284
##ness	10285
salvatore	10286
##lu	10287
swift	10288
##ul	10289
week	10290
##ean	10291
##300	10292
##gle	10293
##back	10294
powered	10295
##tan	10296
##nes	10297
canon	10298
##zi	10299
##las	10300
##oe	10301
##sd	10302
##bot	10303
##world	10304
##zo	10305
top100	10306
pmi	10307
##vr	10308
ball	10309
vogue	10310
ofweek	10311
##list	10312
##ort	10313
##lon	10314
##tc	10315
##of	10316
##bus	10317
##gen	10318
nas	10319
##lie	10320
##ria	10321
##coin	10322
##bt	10323
nata	10324
vive	10325
cup	10326
##ook	10327
##sy	10328
msg	10329
3ce	10330
##word	10331
ebooks	10332
r8	10333
nice	10334
months	10335
rewards	10336
##ther	10337
0800	10338
##xi	10339
##sc	10340
gg	10341
blogfp	10342
daily	10343
##bb	10344
##tar	10345
##ky	10346
anthony	10347
##yo	10348
##ara	10349
##aa	10350
##rc	10351
##tz	10352
##ston	10353
gear	10354
##eo	10355
##ade	10356
##win	10357
##ura	10358
##den	10359
##ita	10360
##sm	10361
png	10362
rakuten	10363
whatsapp	10364
##use	10365
pad	10366
gucci	10367
##ode	10368
##fo	10369
chicago	10370
##hone	10371
io	10372
sogo	10373
be2	10374
##ology	10375
cloud	10376
##con	10377
##ford	10378
##joy	10379
##kb	10380
##rade	10381
##ach	10382
docker	10383
##ful	10384
##ase	10385
ford	10386
##star	10387
edited	10388
##are	10389
##mc	10390
siri	10391
##ella	10392
bloomberg	10393
##read	10394
pizza	10395
##ison	10396
##vm	10397
node	10398
18k	10399
##play	10400
##cer	10401
##yu	10402
##ings	10403
asr	10404
##lia	10405
step5	10406
##cd	10407
pixstyleme	10408
##600	10409
##tus	10410
tokyo	10411
##rial	10412
##life	10413
##ae	10414
tcs	10415
##rk	10416
##wang	10417
##sp	10418
##ving	10419
premium	10420
netflix	10421
##lton	10422
##ple	10423
##cal	10424
021	10425
##sen	10426
##ville	10427
nexus	10428
##ius	10429
##mah	10430
tila	10431
##tin	10432
resort	10433
##ws	10434
p10	10435
report	10436
##360	10437
##ru	10438
bus	10439
vans	10440
##est	10441
links	10442
rebecca	10443
##dm	10444
azure	10445
##365	10446
##mon	10447
moto	10448
##eam	10449
blogspot	10450
##ments	10451
##ik	10452
##kw	10453
##bin	10454
##ata	10455
##vin	10456
##tu	10457
##ula	10458
station	10459
##ature	10460
files	10461
zara	10462
hdr	10463
top10	10464
s6	10465
marriott	10466
avira	10467
tab	10468
##ran	10469
##home	10470
oculus	10471
##ral	10472
rosie	10473
##force	10474
##ini	10475
ice	10476
##bert	10477
##nder	10478
##mber	10479
plurk	10480
##sis	10481
00kg	10482
##ence	10483
##nc	10484
##name	10485
log	10486
ikea	10487
malaysia	10488
##ncy	10489
##nie	10490
##ye	10491
##oid	10492
##chi	10493
xuehai	10494
##1000	10495
##orm	10496
##rf	10497
##ware	10498
##pro	10499
##era	10500
##ub	10501
##2008	10502
8891	10503
scp	10504
##zen	10505
qvod	10506
jcb	10507
##hr	10508
weibo	10509
##row	10510
##ish	10511
github	10512
mate	10513
##lot	10514
##ane	10515
##tina	10516
ed2k	10517
##vel	10518
##900	10519
final	10520
ns	10521
bytes	10522
##ene	10523
##cker	10524
##2007	10525
##px	10526
topapp	10527
helpapp	10528
14k	10529
g4g	10530
ldquo	10531
##fork	10532
##gan	10533
##zon	10534
##qq	10535
##google	10536
##ism	10537
##zer	10538
toyota	10539
category	10540
##labels	10541
restaurant	10542
##md	10543
posts	10544
##ico	10545
angelababy	10546
123456	10547
sports	10548
candy	10549
##new	10550
##here	10551
swissinfo	10552
dram	10553
##ual	10554
##vice	10555
##wer	10556
sport	10557
q1	10558
ios10	10559
##mll	10560
wan	10561
##uk	10562
x3	10563
0t	10564
##ming	10565
e5	10566
##3d	10567
h7n9	10568
worldcat	10569
##vo	10570
##led	10571
##580	10572
##ax	10573
##ert	10574
polo	10575
##lr	10576
##hing	10577
##chat	10578
##ule	10579
hotmail	10580
##pad	10581
bbq	10582
##ring	10583
wali	10584
2k	10585
costco	10586
switch	10587
##city	10588
philips	10589
##mann	10590
panasonic	10591
##cl	10592
##vd	10593
##ping	10594
##rge	10595
##lk	10596
css3	10597
##ney	10598
##ular	10599
##400	10600
##tter	10601
lz	10602
##tm	10603
##yan	10604
##let	10605
coach	10606
##pt	10607
a8	10608
follow	10609
##berry	10610
##ew	10611
##wn	10612
##og	10613
##code	10614
##rid	10615
villa	10616
git	10617
r11	10618
##cket	10619
error	10620
##anonymoussaid	10621
##ag	10622
##ame	10623
##gc	10624
qa	10625
##lis	10626
##gin	10627
vmalife	10628
##cher	10629
wedding	10630
##tis	10631
demo	10632
bye	10633
##rant	10634
orz	10635
acer	10636
##ats	10637
##ven	10638
macd	10639
yougou	10640
##dn	10641
##ano	10642
##urt	10643
##rent	10644
continue	10645
script	10646
##wen	10647
##ect	10648
paper	10649
##chel	10650
##cat	10651
x5	10652
fox	10653
##blog	10654
loading	10655
##yn	10656
##tp	10657
kuso	10658
799	10659
vdc	10660
forest	10661
prime	10662
ultra	10663
##rmb	10664
square	10665
##field	10666
##reen	10667
##ors	10668
##ju	10669
##air	10670
##map	10671
cdn	10672
##wo	10673
m8	10674
##get	10675
opera	10676
##base	10677
##ood	10678
vsa	10679
##aw	10680
##ail	10681
count	10682
##een	10683
##gp	10684
vsc	10685
tree	10686
##eg	10687
##ose	10688
##ories	10689
##shop	10690
alphago	10691
v4	10692
fluke62max	10693
zip	10694
##sta	10695
bas	10696
##yer	10697
hadoop	10698
##ube	10699
##wi	10700
0755	10701
hola	10702
##low	10703
centre	10704
##fer	10705
##750	10706
##media	10707
##san	10708
##bank	10709
q3	10710
##nge	10711
##mail	10712
##lp	10713
client	10714
event	10715
vincent	10716
##nse	10717
sui	10718
adchoice	10719
##stry	10720
##zone	10721
ga	10722
apps	10723
##ab	10724
##rner	10725
kymco	10726
##care	10727
##pu	10728
##yi	10729
minkoff	10730
annie	10731
collection	10732
kpi	10733
playstation	10734
bh	10735
##bar	10736
armani	10737
##xy	10738
iherb	10739
##ery	10740
##share	10741
##ob	10742
volvo	10743
##ball	10744
##hk	10745
##cp	10746
##rie	10747
##ona	10748
##sl	10749
gtx	10750
rdquo	10751
jayz	10752
##lex	10753
##rum	10754
namespace	10755
##ale	10756
##atic	10757
##erson	10758
##ql	10759
##ves	10760
##type	10761
enter	10762
##168	10763
##mix	10764
##bian	10765
a9	10766
ky	10767
##lc	10768
movie	10769
##hc	10770
tower	10771
##ration	10772
##mit	10773
##nch	10774
ua	10775
tel	10776
prefix	10777
##o2	10778
##point	10779
ott	10780
##http	10781
##ury	10782
baidu	10783
##ink	10784
member	10785
##logy	10786
bigbang	10787
nownews	10788
##js	10789
##shot	10790
##tb	10791
eba	10792
##tics	10793
##lus	10794
spark	10795
##ama	10796
##ions	10797
##lls	10798
##down	10799
##ress	10800
burberry	10801
day2	10802
##kv	10803
related	10804
edit	10805
##ark	10806
cx	10807
32gb	10808
g9	10809
##ans	10810
##tty	10811
s5	10812
##bee	10813
thread	10814
xr	10815
buy	10816
spotify	10817
##ari	10818
##verse	10819
7headlines	10820
nego	10821
sunny	10822
dom	10823
positioning	10824
fit	10825
##tton	10826
alexa	10827
##ties	10828
##llow	10829
amy	10830
##du	10831
##rth	10832
##lar	10833
2345	10834
##des	10835
sidebar	10836
site	10837
##cky	10838
##kit	10839
##ime	10840
##009	10841
season	10842
##fun	10843
gogoro	10844
a7	10845
lily	10846
twd600	10847
##vis	10848
##cture	10849
friday	10850
yi	10851
##tta	10852
##tel	10853
##lock	10854
economy	10855
tinker	10856
8gb	10857
##app	10858
oops	10859
##right	10860
edm	10861
##cent	10862
supreme	10863
##its	10864
##asia	10865
dropbox	10866
##tti	10867
books	10868
##tle	10869
##ller	10870
##ken	10871
##more	10872
##boy	10873
sex	10874
##dom	10875
##ider	10876
##unch	10877
##put	10878
##gh	10879
ka	10880
amoled	10881
div	10882
##tr	10883
##n1	10884
port	10885
howard	10886
##tags	10887
ken	10888
##nus	10889
adsense	10890
buff	10891
thunder	10892
##town	10893
##ique	10894
##body	10895
pin	10896
##erry	10897
tee	10898
##the	10899
##013	10900
udnbkk	10901
16gb	10902
##mic	10903
miui	10904
##tro	10905
##alk	10906
##nity	10907
s4	10908
##oa	10909
docomo	10910
##tf	10911
##ack	10912
fc2	10913
##ded	10914
##sco	10915
##014	10916
##rite	10917
linkedin	10918
##ada	10919
##now	10920
##ndy	10921
ucbug	10922
sputniknews	10923
legalminer	10924
##ika	10925
##xp	10926
##bu	10927
q10	10928
##rman	10929
cheese	10930
ming	10931
maker	10932
##gm	10933
nikon	10934
##fig	10935
ppi	10936
jchere	10937
ted	10938
fgo	10939
tech	10940
##tto	10941
##gl	10942
##len	10943
hair	10944
img	10945
##pper	10946
##a1	10947
acca	10948
##ition	10949
##ference	10950
suite	10951
##ig	10952
##mond	10953
##cation	10954
##pr	10955
101vip	10956
##999	10957
64gb	10958
airport	10959
##over	10960
##ith	10961
##su	10962
town	10963
piece	10964
##llo	10965
no1	10966
##qi	10967
focus	10968
reader	10969
##admin	10970
##ora	10971
false	10972
##log	10973
##ces	10974
##ume	10975
motel	10976
##oper	10977
flickr	10978
netcomponents	10979
##af	10980
pose	10981
##ound	10982
##cg	10983
##site	10984
##iko	10985
con	10986
##ath	10987
##hip	10988
##rey	10989
cream	10990
##cks	10991
012	10992
##dp	10993
facebooktwitterpinterestgoogle	10994
sso	10995
shtml	10996
swiss	10997
##mw	10998
lumia	10999
xdd	11000
tiffany	11001
insee	11002
russell	11003
dell	11004
##ations	11005
camera	11006
##vs	11007
##flow	11008
##late	11009
classic	11010
##nter	11011
##ever	11012
##lab	11013
##nger	11014
qe	11015
##cing	11016
editor	11017
##nap	11018
sunday	11019
##ens	11020
##700	11021
##bra	11022
acg	11023
sofascore	11024
mkv	11025
##ign	11026
jonathan	11027
build	11028
labels	11029
##oto	11030
tesla	11031
moba	11032
gohappy	11033
ajax	11034
##test	11035
##urs	11036
wps	11037
fedora	11038
##ich	11039
mozilla	11040
##480	11041
##dr	11042
urn	11043
##lina	11044
grace	11045
##die	11046
##try	11047
##ader	11048
elle	11049
##chen	11050
price	11051
##ten	11052
uhz	11053
##ough	11054
##hen	11055
states	11056
push	11057
session	11058
balance	11059
wow	11060
##cus	11061
##py	11062
##ward	11063
##ep	11064
34e	11065
wong	11066
prada	11067
##cle	11068
##ree	11069
q4	11070
##ctive	11071
##ool	11072
##ira	11073
##163	11074
rq	11075
buffet	11076
e6	11077
##ez	11078
##card	11079
##cha	11080
day3	11081
eye	11082
##end	11083
adi	11084
tvbs	11085
##ala	11086
nova	11087
##tail	11088
##ries	11089
##ved	11090
base	11091
##ways	11092
hero	11093
hgih	11094
profile	11095
fish	11096
mu	11097
ssh	11098
##wd	11099
click	11100
cake	11101
##ond	11102
pre	11103
##tom	11104
kic	11105
pixel	11106
##ov	11107
##fl	11108
product	11109
6a	11110
##pd	11111
dear	11112
##gate	11113
yumi	11114
##sky	11115
bin	11116
##ture	11117
##ape	11118
isis	11119
nand	11120
##101	11121
##load	11122
##ream	11123
a6	11124
##post	11125
##we	11126
zenfone	11127
##ike	11128
gd	11129
forum	11130
jessica	11131
##ould	11132
##ious	11133
lohasthree	11134
##gar	11135
##ggle	11136
##ric	11137
##own	11138
eclipse	11139
##side	11140
061	11141
##other	11142
##tech	11143
##ator	11144
engine	11145
##ged	11146
plaza	11147
##fit	11148
westbrook	11149
reuters	11150
##ily	11151
contextlink	11152
##hn	11153
##cil	11154
##cel	11155
cambridge	11156
##ize	11157
##aid	11158
##data	11159
frm	11160
##head	11161
butler	11162
##sun	11163
##mar	11164
puma	11165
pmid	11166
kitchen	11167
##lic	11168
day1	11169
##text	11170
##page	11171
##rris	11172
pm1	11173
##ket	11174
trackback	11175
##hai	11176
display	11177
##hl	11178
idea	11179
##sent	11180
airmail	11181
##ug	11182
##men	11183
028	11184
##lution	11185
schemas	11186
asics	11187
wikipedia	11188
##tional	11189
##vy	11190
##dget	11191
##ein	11192
contact	11193
pepper	11194
##uel	11195
##ument	11196
##hang	11197
q5	11198
##sue	11199
##ndi	11200
swatch	11201
##cept	11202
popular	11203
##ste	11204
##tag	11205
trc	11206
##west	11207
##live	11208
honda	11209
ping	11210
messenger	11211
##rap	11212
v9	11213
unity	11214
appqq	11215
leo	11216
##tone	11217
##ass	11218
uniqlo	11219
##010	11220
moneydj	11221
##tical	11222
12306	11223
##m2	11224
coc	11225
miacare	11226
##mn	11227
tmt	11228
##core	11229
vim	11230
kk	11231
##may	11232
target	11233
##2c	11234
##ope	11235
omega	11236
pinkoi	11237
##rain	11238
##ement	11239
p9	11240
rd	11241
##tier	11242
##vic	11243
zone	11244
isofix	11245
cpa	11246
kimi	11247
##lay	11248
lulu	11249
##uck	11250
050	11251
weeks	11252
##hop	11253
##ear	11254
eia	11255
##fly	11256
korea	11257
boost	11258
##ship	11259
eur	11260
valley	11261
##iel	11262
##ude	11263
rn	11264
##ena	11265
feed	11266
5757	11267
qqmei	11268
##thing	11269
aws	11270
pink	11271
##ters	11272
##kin	11273
board	11274
##vertisement	11275
wine	11276
##ien	11277
##dge	11278
##tant	11279
##twitter	11280
##3c	11281
cool1	11282
##012	11283
##150	11284
##fu	11285
##iner	11286
googlemsn	11287
pixnetfacebookyahoo	11288
x7	11289
##uce	11290
sao	11291
##ev	11292
##file	11293
9678	11294
xddd	11295
shirt	11296
##rio	11297
##hat	11298
givenchy	11299
bang	11300
##lio	11301
monday	11302
##abc	11303
ubuntuforumwikilinuxpastechat	11304
##vc	11305
##rity	11306
7866	11307
##ost	11308
imsean	11309
tiger	11310
##fet	11311
dji	11312
##come	11313
##beth	11314
##aft	11315
##don	11316
3p	11317
emma	11318
##khz	11319
x6	11320
##face	11321
pptv	11322
x4	11323
##mate	11324
sophie	11325
##jing	11326
fifa	11327
##mand	11328
sale	11329
inwedding	11330
##gn	11331
##mmy	11332
##pmlast	11333
nana	11334
##wu	11335
note7	11336
##340	11337
##bel	11338
window	11339
##dio	11340
##ht	11341
##ivity	11342
domain	11343
neo	11344
##isa	11345
##lter	11346
5k	11347
f5	11348
##cts	11349
ft	11350
zol	11351
##act	11352
mwc	11353
nbapop	11354
eds	11355
##room	11356
previous	11357
tomtom	11358
##ets	11359
5t	11360
chi	11361
##hg	11362
fairmont	11363
gay	11364
1b	11365
##raph	11366
##ils	11367
i3	11368
avenue	11369
##host	11370
##bon	11371
##tsu	11372
message	11373
navigation	11374
fintech	11375
h6	11376
##ject	11377
##vas	11378
##firm	11379
credit	11380
##wf	11381
xxxx	11382
##nor	11383
##space	11384
huawei	11385
plan	11386
json	11387
sbl	11388
##dc	11389
wish	11390
##120	11391
##sol	11392
windows7	11393
washington	11394
##nsis	11395
lo	11396
##sio	11397
##ym	11398
##bor	11399
planet	11400
##wt	11401
gpa	11402
##tw	11403
##oka	11404
connect	11405
##rss	11406
##work	11407
##atus	11408
chicken	11409
##times	11410
fa	11411
##ather	11412
##cord	11413
009	11414
##eep	11415
hitachi	11416
##pan	11417
disney	11418
##press	11419
wind	11420
frigidaire	11421
##tl	11422
hsu	11423
##ull	11424
expedia	11425
archives	11426
##wei	11427
cut	11428
ins	11429
6gb	11430
brand	11431
cf1	11432
##rip	11433
##nis	11434
128gb	11435
3t	11436
##oon	11437
quick	11438
15058	11439
wing	11440
##bug	11441
##cms	11442
##dar	11443
##oh	11444
zoom	11445
trip	11446
##nba	11447
rcep	11448
aspx	11449
080	11450
gnu	11451
##count	11452
##url	11453
##ging	11454
8591	11455
am09	11456
shadow	11457
##cia	11458
emily	11459
##tation	11460
host	11461
ff	11462
techorz	11463
##mini	11464
##mporary	11465
##ering	11466
##next	11467
cma	11468
##mbps	11469
##gas	11470
##ift	11471
##dot	11472
amana	11473
##ros	11474
##eet	11475
##ible	11476
##aka	11477
##lor	11478
maggie	11479
##011	11480
##iu	11481
##gt	11482
1tb	11483
articles	11484
##burg	11485
##iki	11486
database	11487
fantasy	11488
##rex	11489
##cam	11490
dlc	11491
dean	11492
##you	11493
path	11494
gaming	11495
victoria	11496
maps	11497
##lee	11498
##itor	11499
overchicstoretvhome	11500
##xt	11501
##nan	11502
x9	11503
install	11504
##ann	11505
##ph	11506
##rcle	11507
##nic	11508
##nar	11509
metro	11510
chocolate	11511
##rian	11512
##table	11513
skin	11514
##sn	11515
mountain	11516
##0mm	11517
inparadise	11518
7x24	11519
##jia	11520
eeworld	11521
creative	11522
g5	11523
parker	11524
ecfa	11525
village	11526
sylvia	11527
hbl	11528
##ques	11529
##onsored	11530
##x2	11531
##v4	11532
##tein	11533
ie6	11534
##stack	11535
ver	11536
##ads	11537
##baby	11538
bbe	11539
##110	11540
##lone	11541
##uid	11542
ads	11543
022	11544
gundam	11545
006	11546
scrum	11547
match	11548
##ave	11549
##470	11550
##oy	11551
##talk	11552
glass	11553
lamigo	11554
##eme	11555
##a5	11556
wade	11557
kde	11558
##lace	11559
ocean	11560
tvg	11561
##covery	11562
##r3	11563
##ners	11564
##rea	11565
##aine	11566
cover	11567
##ision	11568
##sia	11569
##bow	11570
msi	11571
##love	11572
soft	11573
z2	11574
##pl	11575
mobil	11576
##uy	11577
nginx	11578
##oi	11579
##rr	11580
6221	11581
##mple	11582
##sson	11583
##nts	11584
91tv	11585
comhd	11586
crv3000	11587
##uard	11588
gallery	11589
##bia	11590
rate	11591
spf	11592
redis	11593
traction	11594
icloud	11595
011	11596
jose	11597
##tory	11598
sohu	11599
899	11600
kicstart2	11601
##hia	11602
##sit	11603
##walk	11604
##xure	11605
500g	11606
##pact	11607
xa	11608
carlo	11609
##250	11610
##walker	11611
##can	11612
cto	11613
gigi	11614
pen	11615
##hoo	11616
ob	11617
##yy	11618
13913459	11619
##iti	11620
mango	11621
##bbs	11622
sense	11623
oxford	11624
walker	11625
jennifer	11626
##ola	11627
course	11628
##bre	11629
##pus	11630
##rder	11631
lucky	11632
075	11633
ivy	11634
##nia	11635
sotheby	11636
##ugh	11637
joy	11638
##orage	11639
##ush	11640
##bat	11641
##dt	11642
r9	11643
##2d	11644
##gio	11645
wear	11646
##lax	11647
##moon	11648
seven	11649
lonzo	11650
8k	11651
evolution	11652
##kk	11653
kd	11654
arduino	11655
##lux	11656
arpg	11657
##rdon	11658
cook	11659
##x5	11660
five	11661
##als	11662
##ida	11663
sign	11664
##nda	11665
##posted	11666
fresh	11667
##mine	11668
##skip	11669
##form	11670
##ssion	11671
##tee	11672
dyson	11673
stage	11674
##jie	11675
##night	11676
epson	11677
pack	11678
##ppy	11679
wd	11680
##eh	11681
##rence	11682
##lvin	11683
golden	11684
discovery	11685
##trix	11686
##n2	11687
loft	11688
##uch	11689
##dra	11690
##sse	11691
1mdb	11692
welcome	11693
##urn	11694
gaga	11695
##lmer	11696
teddy	11697
##160	11698
##f2016	11699
##sha	11700
rar	11701
holiday	11702
074	11703
##vg	11704
##nos	11705
##rail	11706
gartner	11707
gi	11708
6p	11709
##dium	11710
kit	11711
b3	11712
eco	11713
sean	11714
##stone	11715
nu	11716
##np	11717
f16	11718
write	11719
029	11720
m5	11721
##ias	11722
##dk	11723
fsm	11724
52kb	11725
##xxx	11726
##cake	11727
lim	11728
ru	11729
1v	11730
##ification	11731
published	11732
angela	11733
16g	11734
analytics	11735
##nel	11736
gmt	11737
##icon	11738
##bby	11739
ios11	11740
waze	11741
9985	11742
##ust	11743
##007	11744
delete	11745
52sykb	11746
wwdc	11747
027	11748
##fw	11749
1389	11750
##xon	11751
brandt	11752
##ses	11753
##dragon	11754
vetements	11755
anne	11756
monte	11757
official	11758
##ere	11759
##nne	11760
##oud	11761
etnews	11762
##a2	11763
##graphy	11764
##rtex	11765
##gma	11766
mount	11767
archive	11768
morning	11769
tan	11770
ddos	11771
e7	11772
day4	11773
factory	11774
bruce	11775
##ito	11776
guest	11777
##lling	11778
n3	11779
mega	11780
women	11781
dac	11782
church	11783
##jun	11784
singapore	11785
##facebook	11786
6991	11787
starbucks	11788
##tos	11789
##stin	11790
##shine	11791
zen	11792
##mu	11793
tina	11794
request	11795
##gence	11796
q7	11797
##zzi	11798
diary	11799
##tore	11800
##ead	11801
cst	11802
##osa	11803
canada	11804
va	11805
##jiang	11806
##lam	11807
##nix	11808
##sday	11809
g6	11810
##master	11811
bing	11812
##zl	11813
nb40	11814
thai	11815
ln284ct	11816
##itz	11817
##2f	11818
bonnie	11819
##food	11820
##lent	11821
originals	11822
##stro	11823
##lts	11824
##bscribe	11825
ntd	11826
yesstyle	11827
hmv	11828
##tment	11829
d5	11830
##pn	11831
topios9	11832
lifestyle	11833
virtual	11834
##ague	11835
xz	11836
##deo	11837
muji	11838
024	11839
unt	11840
##nnis	11841
faq1	11842
##ette	11843
curry	11844
##pop	11845
release	11846
##cast	11847
073	11848
##ews	11849
5c	11850
##stle	11851
ios7	11852
##ima	11853
dog	11854
lenovo	11855
##r4	11856
013	11857
vornado	11858
##desk	11859
##ald	11860
9595	11861
##van	11862
oil	11863
common	11864
##jy	11865
##lines	11866
g7	11867
twice	11868
ella	11869
nano	11870
belle	11871
##mes	11872
##self	11873
##note	11874
benz	11875
##ova	11876
##wing	11877
kai	11878
##hua	11879
##rect	11880
rainer	11881
##unge	11882
##0m	11883
guestname	11884
##uma	11885
##kins	11886
##zu	11887
tokichoi	11888
##price	11889
##med	11890
##mus	11891
rmk	11892
address	11893
vm	11894
openload	11895
##group	11896
##hin	11897
##iginal	11898
amg	11899
urban	11900
##oz	11901
jobs	11902
##public	11903
##sch	11904
##dden	11905
##bell	11906
hostel	11907
##drive	11908
##rmin	11909
boot	11910
##370	11911
##fx	11912
##nome	11913
##ctionary	11914
##oman	11915
##lish	11916
##cr	11917
##hm	11918
##how	11919
francis	11920
c919	11921
b5	11922
evernote	11923
##uc	11924
##3000	11925
coupe	11926
##urg	11927
##cca	11928
##uality	11929
019	11930
##ett	11931
##ani	11932
##tax	11933
##rma	11934
leonnhurt	11935
##jin	11936
ict	11937
bird	11938
notes	11939
##dical	11940
##lli	11941
result	11942
iu	11943
ee	11944
smap	11945
gopro	11946
##last	11947
yin	11948
pure	11949
32g	11950
##dan	11951
##rame	11952
mama	11953
##oot	11954
bean	11955
##hur	11956
2l	11957
bella	11958
sync	11959
xuite	11960
##ground	11961
discuz	11962
##getrelax	11963
##ince	11964
##bay	11965
##5s	11966
apt	11967
##pass	11968
jing	11969
##rix	11970
rich	11971
niusnews	11972
##ello	11973
bag	11974
##eting	11975
##mobile	11976
##ience	11977
details	11978
universal	11979
silver	11980
dit	11981
private	11982
ddd	11983
u11	11984
kanshu	11985
##ified	11986
fung	11987
##nny	11988
dx	11989
##520	11990
tai	11991
023	11992
##fr	11993
##lean	11994
##pin	11995
##rin	11996
ly	11997
rick	11998
##bility	11999
banner	12000
##baru	12001
##gion	12002
vdf	12003
qualcomm	12004
bear	12005
oldid	12006
ian	12007
jo	12008
##tors	12009
population	12010
##ernel	12011
##mv	12012
##bike	12013
ww	12014
##ager	12015
exhibition	12016
##del	12017
##pods	12018
fpx	12019
structure	12020
##free	12021
##tings	12022
kl	12023
##rley	12024
##copyright	12025
##mma	12026
orange	12027
yoga	12028
4l	12029
canmake	12030
honey	12031
##anda	12032
nikkie	12033
dhl	12034
publishing	12035
##mall	12036
##gnet	12037
e88	12038
##dog	12039
fishbase	12040
###	12041
##[	12042
。	12043
！	12044
？	12045
!	12046
?	12047
；	12048
:	12049
;	12050
<S>	12051
<T>	12052
"	12053
$	12054
%	12055
&	12056
'	12057
(	12058
)	12059
*	12060
+	12061
-	12062
/	12063
<	12064
=	12065
>	12066
@	12067
\	12068
]	12069
^	12070
_	12071
{	12072
|	12073
}	12074
~	12075
£	12076
¤	12077
¥	12078
§	12079
©	12080
«	12081
®	12082
°	12083
±	12084
²	12085
³	12086
µ	12087
·	12088
¹	12089
º	12090
»	12091
¼	12092
×	12093
ß	12094
æ	12095
÷	12096
ø	12097
đ	12098
ŋ	12099
ɔ	12100
ə	12101
ɡ	12102
ʰ	12103
ˇ	12104
ˈ	12105
ˊ	12106
ˋ	12107
ˍ	12108
ː	12109
˙	12110
˚	12111
ˢ	12112
α	12113
β	12114
γ	12115
δ	12116
ε	12117
η	12118
θ	12119
ι	12120
κ	12121
λ	12122
μ	12123
ν	12124
ο	12125
π	12126
ρ	12127
ς	12128
σ	12129
τ	12130
υ	12131
φ	12132
χ	12133
ψ	12134
ω	12135
а	12136
б	12137
в	12138
г	12139
д	12140
е	12141
ж	12142
з	12143
и	12144
к	12145
л	12146
м	12147
н	12148
о	12149
п	12150
р	12151
с	12152
т	12153
у	12154
ф	12155
х	12156
ц	12157
ч	12158
ш	12159
ы	12160
ь	12161
я	12162
і	12163
ا	12164
ب	12165
ة	12166
ت	12167
د	12168
ر	12169
س	12170
ع	12171
ل	12172
م	12173
ن	12174
ه	12175
و	12176
ي	12177
۩	12178
ก	12179
ง	12180
น	12181
ม	12182
ย	12183
ร	12184
อ	12185
า	12186
เ	12187
๑	12188
་	12189
ღ	12190
ᄀ	12191
ᄁ	12192
ᄂ	12193
ᄃ	12194
ᄅ	12195
ᄆ	12196
ᄇ	12197
ᄈ	12198
ᄉ	12199
ᄋ	12200
ᄌ	12201
ᄎ	12202
ᄏ	12203
ᄐ	12204
ᄑ	12205
ᄒ	12206
ᅡ	12207
ᅢ	12208
ᅣ	12209
ᅥ	12210
ᅦ	12211
ᅧ	12212
ᅨ	12213
ᅩ	12214
ᅪ	12215
ᅬ	12216
ᅭ	12217
ᅮ	12218
ᅯ	12219
ᅲ	12220
ᅳ	12221
ᅴ	12222
ᅵ	12223
ᆨ	12224
ᆫ	12225
ᆯ	12226
ᆷ	12227
ᆸ	12228
ᆺ	12229
ᆻ	12230
ᆼ	12231
ᗜ	12232
ᵃ	12233
ᵉ	12234
ᵍ	12235
ᵏ	12236
ᵐ	12237
ᵒ	12238
ᵘ	12239
‖	12240
„	12241
†	12242
•	12243
‥	12244
‧	12245
‰	12246
′	12247
″	12248
‹	12249
›	12250
※	12251
‿	12252
⁄	12253
ⁱ	12254
⁺	12255
ⁿ	12256
₁	12257
₂	12258
₃	12259
₄	12260
€	12261
℃	12262
№	12263
™	12264
ⅰ	12265
ⅱ	12266
ⅲ	12267
ⅳ	12268
ⅴ	12269
←	12270
↑	12271
→	12272
↓	12273
↔	12274
↗	12275
↘	12276
⇒	12277
∀	12278
−	12279
∕	12280
∙	12281
√	12282
∞	12283
∟	12284
∠	12285
∣	12286
∥	12287
∩	12288
∮	12289
∶	12290
∼	12291
∽	12292
≈	12293
≒	12294
≡	12295
≤	12296
≥	12297
≦	12298
≧	12299
≪	12300
≫	12301
⊙	12302
⋅	12303
⋈	12304
⋯	12305
⌒	12306
①	12307
②	12308
③	12309
④	12310
⑤	12311
⑥	12312
⑦	12313
⑧	12314
⑨	12315
⑩	12316
⑴	12317
⑵	12318
⑶	12319
⑷	12320
⑸	12321
⒈	12322
⒉	12323
⒊	12324
⒋	12325
ⓒ	12326
ⓔ	12327
ⓘ	12328
─	12329
━	12330
│	12331
┃	12332
┅	12333
┆	12334
┊	12335
┌	12336
└	12337
├	12338
┣	12339
═	12340
║	12341
╚	12342
╞	12343
╠	12344
╭	12345
╮	12346
╯	12347
╰	12348
╱	12349
╳	12350
▂	12351
▃	12352
▅	12353
▇	12354
█	12355
▉	12356
▋	12357
▌	12358
▍	12359
▎	12360
■	12361
□	12362
▪	12363
▫	12364
▬	12365
▲	12366
△	12367
▶	12368
►	12369
▼	12370
▽	12371
◆	12372
◇	12373
○	12374
◎	12375
●	12376
◕	12377
◠	12378
◢	12379
◤	12380
☀	12381
★	12382
☆	12383
☕	12384
☞	12385
☺	12386
☼	12387
♀	12388
♂	12389
♠	12390
♡	12391
♣	12392
♥	12393
♦	12394
♪	12395
♫	12396
♬	12397
✈	12398
✔	12399
✕	12400
✖	12401
✦	12402
✨	12403
✪	12404
✰	12405
✿	12406
❀	12407
❤	12408
➜	12409
➤	12410
⦿	12411
〃	12412
々	12413
〇	12414
〈	12415
〉	12416
「	12417
」	12418
『	12419
』	12420
【	12421
】	12422
〓	12423
〔	12424
〕	12425
〖	12426
〗	12427
〜	12428
〝	12429
〞	12430
ぁ	12431
あ	12432
ぃ	12433
い	12434
う	12435
ぇ	12436
え	12437
お	12438
か	12439
き	12440
く	12441
け	12442
こ	12443
さ	12444
し	12445
す	12446
せ	12447
そ	12448
た	12449
ち	12450
っ	12451
つ	12452
て	12453
と	12454
な	12455
に	12456
ぬ	12457
ね	12458
の	12459
は	12460
ひ	12461
ふ	12462
へ	12463
ほ	12464
ま	12465
み	12466
む	12467
め	12468
も	12469
ゃ	12470
や	12471
ゅ	12472
ゆ	12473
ょ	12474
よ	12475
ら	12476
り	12477
る	12478
れ	12479
ろ	12480
わ	12481
を	12482
ん	12483
゜	12484
ゝ	12485
ァ	12486
ア	12487
ィ	12488
イ	12489
ゥ	12490
ウ	12491
ェ	12492
エ	12493
ォ	12494
オ	12495
カ	12496
キ	12497
ク	12498
ケ	12499
コ	12500
サ	12501
シ	12502
ス	12503
セ	12504
ソ	12505
タ	12506
チ	12507
ッ	12508
ツ	12509
テ	12510
ト	12511
ナ	12512
ニ	12513
ヌ	12514
ネ	12515
ノ	12516
ハ	12517
ヒ	12518
フ	12519
ヘ	12520
ホ	12521
マ	12522
ミ	12523
ム	12524
メ	12525
モ	12526
ャ	12527
ヤ	12528
ュ	12529
ユ	12530
ョ	12531
ヨ	12532
ラ	12533
リ	12534
ル	12535
レ	12536
ロ	12537
ワ	12538
ヲ	12539
ン	12540
ヶ	12541
・	12542
ー	12543
ヽ	12544
ㄅ	12545
ㄆ	12546
ㄇ	12547
ㄉ	12548
ㄋ	12549
ㄌ	12550
ㄍ	12551
ㄎ	12552
ㄏ	12553
ㄒ	12554
ㄚ	12555
ㄛ	12556
ㄞ	12557
ㄟ	12558
ㄢ	12559
ㄤ	12560
ㄥ	12561
ㄧ	12562
ㄨ	12563
ㆍ	12564
㈦	12565
㊣	12566
㎡	12567
㗎	12568
丟	12569
両	12570
並	12571
丨	12572
丼	12573
丿	12574
乗	12575
乩	12576
亀	12577
亂	12578
亙	12579
亜	12580
亞	12581
仏	12582
仮	12583
伕	12584
佇	12585
佈	12586
佔	12587
佢	12588
併	12589
來	12590
侖	12591
価	12592
侶	12593
侷	12594
係	12595
俠	12596
俬	12597
倆	12598
倉	12599
個	12600
們	12601
倖	12602
値	12603
倫	12604
倶	12605
偉	12606
側	12607
偵	12608
偽	12609
傑	12610
傘	12611
備	12612
傚	12613
傢	12614
傭	12615
傳	12616
債	12617
傷	12618
傾	12619
僅	12620
働	12621
僑	12622
僕	12623
僥	12624
僱	12625
價	12626
儀	12627
儂	12628
億	12629
儉	12630
儕	12631
儘	12632
償	12633
優	12634
儲	12635
儷	12636
儼	12637
兇	12638
兌	12639
児	12640
兒	12641
內	12642
兩	12643
兲	12644
円	12645
冇	12646
冊	12647
冏	12648
冨	12649
冪	12650
冾	12651
凈	12652
凍	12653
凜	12654
処	12655
凪	12656
凱	12657
別	12658
刪	12659
則	12660
剉	12661
剋	12662
剎	12663
剛	12664
剝	12665
剣	12666
剤	12667
創	12668
剷	12669
劃	12670
劇	12671
劉	12672
劊	12673
劍	12674
劏	12675
劑	12676
労	12677
効	12678
勁	12679
動	12680
務	12681
勛	12682
勝	12683
勞	12684
勢	12685
勧	12686
勳	12687
勵	12688
勸	12689
勻	12690
匯	12691
匱	12692
區	12693
協	12694
卻	12695
厭	12696
厲	12697
厳	12698
參	12699
叢	12700
吳	12701
吶	12702
吽	12703
呂	12704
呲	12705
咁	12706
咗	12707
咘	12708
咣	12709
咭	12710
哂	12711
哋	12712
哐	12713
員	12714
唄	12715
唰	12716
唷	12717
唸	12718
問	12719
啓	12720
啞	12721
啟	12722
啫	12723
啱	12724
啲	12725
啵	12726
啷	12727
喎	12728
喚	12729
喪	12730
喫	12731
喬	12732
單	12733
喰	12734
喲	12735
営	12736
喺	12737
嗆	12738
嗇	12739
嗎	12740
嗚	12741
嗰	12742
嗶	12743
嘆	12744
嘍	12745
嘔	12746
嘖	12747
嘗	12748
嘚	12749
嘜	12750
嘢	12751
嘣	12752
嘩	12753
嘮	12754
嘯	12755
嘰	12756
嘸	12757
噁	12758
噌	12759
噓	12760
噔	12761
噠	12762
噴	12763
噸	12764
噹	12765
嚀	12766
嚇	12767
嚐	12768
嚕	12769
嚟	12770
嚥	12771
嚨	12772
嚮	12773
嚴	12774
囂	12775
囉	12776
囍	12777
囑	12778
囔	12779
囝	12780
囟	12781
団	12782
囪	12783
囫	12784
囲	12785
図	12786
國	12787
圍	12788
圏	12789
園	12790
圓	12791
圖	12792
團	12793
圧	12794
坵	12795
垚	12796
垵	12797
埗	12798
埤	12799
埵	12800
執	12801
埸	12802
埼	12803
堅	12804
堙	12805
堯	12806
報	12807
場	12808
堺	12809
堿	12810
塊	12811
塗	12812
塚	12813
塢	12814
塩	12815
塭	12816
塵	12817
墊	12818
増	12819
墘	12820
墜	12821
墮	12822
墳	12823
墻	12824
墾	12825
壆	12826
壇	12827
壊	12828
壓	12829
壘	12830
壞	12831
壟	12832
壢	12833
壩	12834
壯	12835
売	12836
壺	12837
壽	12838
夠	12839
夢	12840
夾	12841
奐	12842
奧	12843
奪	12844
奬	12845
奮	12846
妘	12847
妝	12848
妳	12849
姉	12850
姍	12851
姦	12852
姪	12853
姫	12854
娛	12855
婁	12856
婊	12857
婦	12858
婭	12859
媞	12860
媧	12861
媽	12862
嫑	12863
嫚	12864
嫲	12865
嫵	12866
嫻	12867
嬅	12868
嬌	12869
嬢	12870
嬤	12871
嬪	12872
嬰	12873
嬸	12874
嬿	12875
孃	12876
孖	12877
孫	12878
孬	12879
學	12880
孿	12881
宮	12882
寛	12883
寢	12884
實	12885
寧	12886
審	12887
寫	12888
寬	12889
寵	12890
寶	12891
専	12892
將	12893
專	12894
尋	12895
對	12896
導	12897
尷	12898
屄	12899
屆	12900
屜	12901
屢	12902
層	12903
屬	12904
岀	12905
岡	12906
峇	12907
峴	12908
島	12909
峽	12910
崁	12911
崑	12912
崗	12913
崙	12914
嵐	12915
嶄	12916
嶇	12917
嶋	12918
嶺	12919
嶼	12920
嶽	12921
巒	12922
巔	12923
巿	12924
帥	12925
師	12926
帯	12927
帰	12928
帳	12929
帶	12930
幀	12931
幟	12932
幣	12933
幫	12934
幹	12935
幾	12936
庁	12937
広	12938
庫	12939
庹	12940
廁	12941
廂	12942
廃	12943
廈	12944
廚	12945
廝	12946
廟	12947
廠	12948
廢	12949
廣	12950
廬	12951
廳	12952
弒	12953
弔	12954
張	12955
強	12956
弾	12957
彅	12958
彆	12959
彈	12960
彌	12961
彎	12962
彙	12963
彥	12964
彫	12965
彿	12966
徑	12967
従	12968
從	12969
徠	12970
復	12971
徬	12972
徴	12973
徹	12974
忪	12975
怼	12976
恆	12977
恥	12978
恫	12979
恵	12980
悅	12981
悩	12982
悪	12983
悵	12984
悶	12985
悽	12986
惡	12987
惱	12988
愛	12989
愜	12990
愷	12991
慄	12992
態	12993
慘	12994
慚	12995
慟	12996
慣	12997
慫	12998
慮	12999
慳	13000
慶	13001
慾	13002
憂	13003
憊	13004
憐	13005
憑	13006
憚	13007
憤	13008
憫	13009
憲	13010
憶	13011
懇	13012
應	13013
懲	13014
懶	13015
懷	13016
懸	13017
懺	13018
懼	13019
懾	13020
戀	13021
戰	13022
戲	13023
戶	13024
戻	13025
払	13026
扱	13027
抜	13028
択	13029
拋	13030
拡	13031
挙	13032
挾	13033
捌	13034
捨	13035
捩	13036
捲	13037
掃	13038
掙	13039
掛	13040
採	13041
掲	13042
掴	13043
揀	13044
揃	13045
揚	13046
換	13047
揮	13048
揶	13049
揸	13050
揹	13051
損	13052
搖	13053
搗	13054
搡	13055
搵	13056
搶	13057
摀	13058
摟	13059
摯	13060
摳	13061
摻	13062
撈	13063
撐	13064
撓	13065
撚	13066
撥	13067
撫	13068
撲	13069
撻	13070
撿	13071
擁	13072
擄	13073
擇	13074
擊	13075
擋	13076
擔	13077
據	13078
擠	13079
擡	13080
擬	13081
擰	13082
擱	13083
擲	13084
擴	13085
擷	13086
擺	13087
擼	13088
擾	13089
攏	13090
攔	13091
攙	13092
攜	13093
攝	13094
攞	13095
攢	13096
攣	13097
攤	13098
攪	13099
攬	13100
敍	13101
敎	13102
敗	13103
敘	13104
敵	13105
數	13106
斂	13107
斃	13108
斎	13109
斬	13110
斷	13111
旮	13112
時	13113
晉	13114
晝	13115
晩	13116
暈	13117
暉	13118
暌	13119
暐	13120
暢	13121
暫	13122
暱	13123
暸	13124
曄	13125
曆	13126
曇	13127
曉	13128
曖	13129
曠	13130
曬	13131
書	13132
會	13133
朧	13134
朮	13135
東	13136
枰	13137
枱	13138
柵	13139
栃	13140
栄	13141
桜	13142
桿	13143
條	13144
梟	13145
梶	13146
棄	13147
棗	13148
棟	13149
棧	13150
棲	13151
椋	13152
椪	13153
楊	13154
楓	13155
楨	13156
業	13157
極	13158
榖	13159
榮	13160
榱	13161
構	13162
槍	13163
槓	13164
槤	13165
槳	13166
槻	13167
樁	13168
樂	13169
樑	13170
樓	13171
標	13172
樞	13173
樣	13174
権	13175
樫	13176
樸	13177
樹	13178
樺	13179
橋	13180
機	13181
橢	13182
橫	13183
檎	13184
檔	13185
檜	13186
檢	13187
檯	13188
檳	13189
檸	13190
檻	13191
櫃	13192
櫚	13193
櫛	13194
櫥	13195
櫸	13196
櫻	13197
欄	13198
權	13199
欒	13200
欖	13201
欸	13202
欽	13203
歎	13204
歐	13205
歓	13206
歛	13207
歡	13208
歩	13209
歯	13210
歲	13211
歳	13212
歴	13213
歷	13214
歸	13215
殘	13216
殞	13217
殤	13218
殭	13219
殯	13220
殲	13221
殺	13222
殼	13223
毀	13224
毆	13225
毘	13226
氈	13227
氣	13228
氫	13229
氷	13230
氹	13231
氾	13232
汆	13233
汎	13234
汙	13235
決	13236
沒	13237
沖	13238
況	13239
洩	13240
洶	13241
洸	13242
浄	13243
浬	13244
涇	13245
涙	13246
涠	13247
涼	13248
淒	13249
淚	13250
淨	13251
淩	13252
淪	13253
淵	13254
淺	13255
済	13256
渉	13257
渋	13258
渙	13259
減	13260
渦	13261
測	13262
渾	13263
湊	13264
湧	13265
湯	13266
湳	13267
満	13268
準	13269
溝	13270
溫	13271
溼	13272
滄	13273
滅	13274
滌	13275
滙	13276
滝	13277
滬	13278
滯	13279
滲	13280
滷	13281
滸	13282
滾	13283
滿	13284
漁	13285
漢	13286
漣	13287
漬	13288
漲	13289
漸	13290
漿	13291
潆	13292
潑	13293
潔	13294
潛	13295
潤	13296
潧	13297
潰	13298
澀	13299
澆	13300
澗	13301
澤	13302
澱	13303
濁	13304
濃	13305
濕	13306
濘	13307
濟	13308
濤	13309
濫	13310
濱	13311
濺	13312
濾	13313
瀅	13314
瀆	13315
瀉	13316
瀋	13317
瀏	13318
瀕	13319
瀘	13320
瀝	13321
瀞	13322
瀟	13323
瀧	13324
瀨	13325
瀬	13326
瀰	13327
瀾	13328
灑	13329
灘	13330
灝	13331
灣	13332
灬	13333
災	13334
為	13335
烏	13336
無	13337
焼	13338
煉	13339
煒	13340
煖	13341
煙	13342
煥	13343
煩	13344
熒	13345
熱	13346
熾	13347
燁	13348
燄	13349
燈	13350
燉	13351
燒	13352
燙	13353
燜	13354
營	13355
燦	13356
燭	13357
燴	13358
燻	13359
燼	13360
燿	13361
爍	13362
爐	13363
爛	13364
爭	13365
爲	13366
爺	13367
爾	13368
牆	13369
牠	13370
牴	13371
牽	13372
犢	13373
犧	13374
狀	13375
狹	13376
狽	13377
猙	13378
猶	13379
獄	13380
獅	13381
獎	13382
獣	13383
獨	13384
獰	13385
獲	13386
獵	13387
獷	13388
獸	13389
獺	13390
獻	13391
獼	13392
珮	13393
現	13394
琍	13395
琲	13396
琺	13397
瑋	13398
瑣	13399
瑤	13400
瑩	13401
瑪	13402
瑯	13403
璁	13404
璉	13405
環	13406
璽	13407
璿	13408
瓊	13409
瓏	13410
甌	13411
甕	13412
產	13413
産	13414
甦	13415
畀	13416
畝	13417
畢	13418
畫	13419
異	13420
畳	13421
當	13422
疇	13423
疊	13424
痙	13425
痠	13426
痱	13427
痺	13428
瘋	13429
瘍	13430
瘓	13431
瘡	13432
瘧	13433
療	13434
癇	13435
癒	13436
癡	13437
癢	13438
癥	13439
癬	13440
癮	13441
癱	13442
癲	13443
發	13444
皚	13445
皰	13446
皺	13447
盃	13448
盜	13449
盞	13450
盡	13451
監	13452
盧	13453
盪	13454
県	13455
眞	13456
眾	13457
睏	13458
睜	13459
睞	13460
睪	13461
瞇	13462
瞓	13463
瞞	13464
瞼	13465
矇	13466
矍	13467
矚	13468
矯	13469
砗	13470
砲	13471
硯	13472
碩	13473
確	13474
碼	13475
磚	13476
磡	13477
磯	13478
磲	13479
礎	13480
礙	13481
礡	13482
礦	13483
礪	13484
礫	13485
祂	13486
祿	13487
禍	13488
禎	13489
禦	13490
禪	13491
禮	13492
禱	13493
禿	13494
稅	13495
稟	13496
種	13497
稱	13498
稲	13499
穀	13500
穂	13501
穌	13502
積	13503
穎	13504
穢	13505
穩	13506
穫	13507
窓	13508
窩	13509
窪	13510
窮	13511
窯	13512
窺	13513
竄	13514
竅	13515
竇	13516
竊	13517
竜	13518
競	13519
笹	13520
筆	13521
筊	13522
筍	13523
筲	13524
箋	13525
箏	13526
箝	13527
節	13528
範	13529
築	13530
篠	13531
篤	13532
篩	13533
篪	13534
簍	13535
簡	13536
簦	13537
簫	13538
簷	13539
簽	13540
簾	13541
籃	13542
籌	13543
籐	13544
籟	13545
籠	13546
籤	13547
籬	13548
籮	13549
籲	13550
粄	13551
粧	13552
粵	13553
糞	13554
糧	13555
糬	13556
糰	13557
糾	13558
紀	13559
紂	13560
約	13561
紅	13562
紉	13563
紋	13564
納	13565
紐	13566
紓	13567
純	13568
紗	13569
紘	13570
紙	13571
級	13572
紛	13573
紜	13574
紡	13575
紮	13576
細	13577
紳	13578
紹	13579
紺	13580
終	13581
絃	13582
組	13583
絆	13584
結	13585
絕	13586
絞	13587
絡	13588
絢	13589
給	13590
絨	13591
統	13592
絲	13593
絳	13594
絵	13595
絶	13596
絹	13597
綁	13598
綏	13599
綑	13600
經	13601
継	13602
綜	13603
綠	13604
綢	13605
綫	13606
綬	13607
維	13608
綱	13609
網	13610
綴	13611
綵	13612
綸	13613
綺	13614
綻	13615
綽	13616
綾	13617
綿	13618
緊	13619
緋	13620
総	13621
緑	13622
緒	13623
緘	13624
線	13625
緝	13626
緞	13627
締	13628
緣	13629
編	13630
緩	13631
緬	13632
緯	13633
練	13634
緹	13635
緻	13636
縁	13637
縄	13638
縈	13639
縛	13640
縝	13641
縣	13642
縫	13643
縮	13644
縱	13645
縴	13646
縷	13647
總	13648
績	13649
繃	13650
繆	13651
繋	13652
織	13653
繕	13654
繚	13655
繞	13656
繡	13657
繩	13658
繪	13659
繫	13660
繭	13661
繳	13662
繹	13663
繼	13664
繽	13665
續	13666
纍	13667
纏	13668
纓	13669
纔	13670
纖	13671
纜	13672
缽	13673
罌	13674
罰	13675
罵	13676
罷	13677
羅	13678
羈	13679
羥	13680
羨	13681
義	13682
習	13683
翹	13684
聖	13685
聞	13686
聯	13687
聰	13688
聲	13689
聳	13690
聴	13691
聶	13692
職	13693
聽	13694
聾	13695
肅	13696
肏	13697
脅	13698
脇	13699
脈	13700
脛	13701
脣	13702
脫	13703
脳	13704
脹	13705
腎	13706
腦	13707
腫	13708
腳	13709
腸	13710
膚	13711
膠	13712
膩	13713
膽	13714
膾	13715
膿	13716
臉	13717
臍	13718
臓	13719
臘	13720
臟	13721
臥	13722
臨	13723
臺	13724
與	13725
興	13726
舉	13727
舊	13728
舎	13729
舖	13730
舗	13731
舺	13732
舾	13733
艋	13734
艙	13735
艦	13736
艱	13737
艷	13738
艹	13739
芃	13740
芻	13741
茲	13742
茼	13743
荊	13744
荖	13745
荘	13746
荳	13747
莊	13748
莖	13749
莢	13750
莧	13751
莿	13752
菈	13753
菓	13754
華	13755
菸	13756
萁	13757
萊	13758
萩	13759
萬	13760
萵	13761
葉	13762
葦	13763
葯	13764
葷	13765
蒔	13766
蒞	13767
蒟	13768
蒨	13769
蒻	13770
蒼	13771
蓆	13772
蓋	13773
蓮	13774
蔔	13775
蔘	13776
蔣	13777
蔥	13778
蔭	13779
蔵	13780
蕁	13781
蕎	13782
蕩	13783
蕪	13784
蕭	13785
蕻	13786
薅	13787
薈	13788
薊	13789
薑	13790
薔	13791
薦	13792
薩	13793
薬	13794
藍	13795
藝	13796
藥	13797
藹	13798
蘆	13799
蘊	13800
蘋	13801
蘚	13802
蘭	13803
蘿	13804
處	13805
虛	13806
虜	13807
號	13808
虧	13809
蚵	13810
蛻	13811
蜆	13812
蝕	13813
蝟	13814
蝦	13815
蝨	13816
蝸	13817
螞	13818
螢	13819
蟄	13820
蟎	13821
蟬	13822
蟲	13823
蟻	13824
蠅	13825
蠍	13826
蠔	13827
蠛	13828
蠟	13829
蠣	13830
蠱	13831
蠶	13832
蠻	13833
衆	13834
術	13835
衛	13836
衝	13837
衞	13838
衹	13839
袞	13840
袪	13841
裊	13842
補	13843
裝	13844
裡	13845
製	13846
複	13847
褔	13848
褫	13849
褲	13850
褻	13851
襠	13852
襪	13853
襬	13854
襯	13855
襲	13856
覇	13857
見	13858
規	13859
覓	13860
視	13861
覚	13862
覦	13863
親	13864
覬	13865
観	13866
覷	13867
覺	13868
覽	13869
觀	13870
觸	13871
訂	13872
計	13873
訊	13874
討	13875
訓	13876
訕	13877
訖	13878
託	13879
記	13880
訛	13881
訝	13882
訟	13883
訣	13884
訥	13885
訪	13886
設	13887
許	13888
訳	13889
訴	13890
訶	13891
診	13892
註	13893
証	13894
詆	13895
詐	13896
詔	13897
評	13898
詛	13899
詞	13900
詠	13901
詡	13902
詢	13903
詣	13904
試	13905
詩	13906
詫	13907
詬	13908
詭	13909
詮	13910
詰	13911
話	13912
該	13913
詳	13914
詼	13915
誅	13916
誇	13917
誌	13918
認	13919
誕	13920
誘	13921
語	13922
誠	13923
誡	13924
誣	13925
誤	13926
誥	13927
誦	13928
誨	13929
說	13930
説	13931
誰	13932
課	13933
誹	13934
誼	13935
調	13936
諄	13937
談	13938
請	13939
諏	13940
諒	13941
論	13942
諗	13943
諜	13944
諡	13945
諦	13946
諧	13947
諫	13948
諭	13949
諮	13950
諱	13951
諳	13952
諷	13953
諸	13954
諺	13955
諾	13956
謀	13957
謁	13958
謂	13959
謄	13960
謊	13961
謎	13962
謐	13963
謔	13964
謗	13965
謙	13966
講	13967
謝	13968
謠	13969
謨	13970
謬	13971
謹	13972
謾	13973
譁	13974
證	13975
譎	13976
譏	13977
識	13978
譙	13979
譚	13980
譜	13981
譯	13982
議	13983
譲	13984
譴	13985
護	13986
譽	13987
讀	13988
變	13989
讓	13990
讚	13991
讞	13992
豈	13993
豊	13994
豎	13995
豐	13996
豔	13997
豬	13998
貓	13999
貝	14000
貞	14001
負	14002
財	14003
貢	14004
貧	14005
貨	14006
販	14007
貪	14008
貫	14009
責	14010
貯	14011
貰	14012
貳	14013
貴	14014
貶	14015
買	14016
貸	14017
費	14018
貼	14019
貽	14020
貿	14021
賀	14022
賁	14023
賂	14024
賃	14025
賄	14026
資	14027
賈	14028
賊	14029
賑	14030
賓	14031
賜	14032
賞	14033
賠	14034
賡	14035
賢	14036
賣	14037
賤	14038
賦	14039
質	14040
賬	14041
賭	14042
賴	14043
賺	14044
購	14045
賽	14046
贅	14047
贈	14048
贊	14049
贍	14050
贏	14051
贓	14052
贖	14053
贛	14054
趕	14055
趙	14056
趨	14057
跡	14058
跩	14059
踐	14060
踟	14061
踴	14062
蹟	14063
蹣	14064
蹤	14065
蹺	14066
躉	14067
躊	14068
躋	14069
躍	14070
躪	14071
軀	14072
車	14073
軋	14074
軌	14075
軍	14076
軒	14077
軟	14078
転	14079
軸	14080
軼	14081
軽	14082
軾	14083
較	14084
載	14085
輒	14086
輓	14087
輔	14088
輕	14089
輛	14090
輝	14091
輟	14092
輩	14093
輪	14094
輯	14095
輸	14096
輻	14097
輾	14098
輿	14099
轄	14100
轅	14101
轆	14102
轉	14103
轍	14104
轎	14105
轟	14106
辦	14107
辭	14108
辮	14109
辯	14110
農	14111
辺	14112
辻	14113
込	14114
迴	14115
迺	14116
逕	14117
這	14118
連	14119
週	14120
進	14121
遅	14122
遊	14123
運	14124
過	14125
達	14126
違	14127
遙	14128
遜	14129
遞	14130
遠	14131
適	14132
遲	14133
遶	14134
遷	14135
選	14136
遺	14137
遼	14138
邁	14139
還	14140
邇	14141
邊	14142
邏	14143
郵	14144
郷	14145
鄉	14146
鄒	14147
鄔	14148
鄧	14149
鄭	14150
鄰	14151
鄲	14152
鄺	14153
醃	14154
醜	14155
醞	14156
醣	14157
醫	14158
醬	14159
醯	14160
釀	14161
釁	14162
釋	14163
釗	14164
釘	14165
針	14166
釣	14167
釦	14168
釧	14169
釵	14170
鈀	14171
鈉	14172
鈍	14173
鈎	14174
鈔	14175
鈕	14176
鈞	14177
鈣	14178
鈦	14179
鈪	14180
鈴	14181
鈺	14182
鈾	14183
鉀	14184
鉄	14185
鉅	14186
鉉	14187
鉑	14188
鉗	14189
鉚	14190
鉛	14191
鉤	14192
鉻	14193
銀	14194
銃	14195
銅	14196
銑	14197
銓	14198
銖	14199
銘	14200
銜	14201
銬	14202
銭	14203
銳	14204
銷	14205
銹	14206
鋁	14207
鋅	14208
鋒	14209
鋤	14210
鋪	14211
鋰	14212
鋸	14213
鋼	14214
錄	14215
錐	14216
錘	14217
錚	14218
錠	14219
錢	14220
錦	14221
錨	14222
錫	14223
錮	14224
錯	14225
錳	14226
錶	14227
鍋	14228
鍍	14229
鍛	14230
鍥	14231
鍰	14232
鍵	14233
鍺	14234
鍾	14235
鎂	14236
鎊	14237
鎌	14238
鎔	14239
鎖	14240
鎗	14241
鎚	14242
鎧	14243
鎬	14244
鎮	14245
鎳	14246
鏈	14247
鏗	14248
鏘	14249
鏞	14250
鏟	14251
鏡	14252
鏢	14253
鏤	14254
鏽	14255
鐘	14256
鐮	14257
鐲	14258
鐳	14259
鐵	14260
鐸	14261
鐺	14262
鑄	14263
鑊	14264
鑑	14265
鑒	14266
鑣	14267
鑰	14268
鑲	14269
鑼	14270
鑽	14271
鑾	14272
鑿	14273
铩	14274
長	14275
門	14276
閃	14277
閉	14278
開	14279
閎	14280
閏	14281
閑	14282
閒	14283
間	14284
閔	14285
閘	14286
閡	14287
閣	14288
閥	14289
閨	14290
閩	14291
閱	14292
閲	14293
閹	14294
閻	14295
閾	14296
闆	14297
闊	14298
闌	14299
闍	14300
闔	14301
闕	14302
闖	14303
闘	14304
關	14305
闡	14306
闢	14307
陝	14308
陞	14309
陣	14310
陰	14311
陳	14312
陸	14313
険	14314
陽	14315
隊	14316
階	14317
隕	14318
際	14319
隠	14320
隣	14321
隨	14322
險	14323
隱	14324
隴	14325
隸	14326
隻	14327
雋	14328
雑	14329
雖	14330
雙	14331
雛	14332
雜	14333
雞	14334
離	14335
難	14336
雰	14337
雲	14338
電	14339
霊	14340
霑	14341
霧	14342
霽	14343
靂	14344
靄	14345
靈	14346
靚	14347
靜	14348
靦	14349
鞏	14350
鞦	14351
韆	14352
韋	14353
韌	14354
韓	14355
韜	14356
韻	14357
響	14358
頁	14359
頂	14360
頃	14361
項	14362
順	14363
須	14364
頌	14365
預	14366
頑	14367
頒	14368
頓	14369
頗	14370
領	14371
頜	14372
頡	14373
頤	14374
頭	14375
頰	14376
頷	14377
頸	14378
頹	14379
頻	14380
頼	14381
顆	14382
題	14383
額	14384
顎	14385
顏	14386
顔	14387
願	14388
顛	14389
類	14390
顧	14391
顫	14392
顯	14393
顱	14394
顴	14395
風	14396
颯	14397
颱	14398
颳	14399
颶	14400
颼	14401
飄	14402
飆	14403
飛	14404
飢	14405
飩	14406
飪	14407
飯	14408
飲	14409
飼	14410
飽	14411
飾	14412
餃	14413
餅	14414
餉	14415
養	14416
餌	14417
餒	14418
餓	14419
餘	14420
餚	14421
餛	14422
餞	14423
餡	14424
館	14425
餵	14426
餾	14427
饅	14428
饈	14429
饋	14430
饌	14431
饍	14432
饑	14433
饒	14434
饗	14435
饞	14436
馬	14437
馭	14438
馮	14439
馳	14440
馴	14441
駁	14442
駄	14443
駅	14444
駆	14445
駐	14446
駒	14447
駕	14448
駛	14449
駝	14450
駭	14451
駱	14452
駿	14453
騁	14454
騎	14455
騏	14456
験	14457
騙	14458
騨	14459
騰	14460
騷	14461
驀	14462
驅	14463
驊	14464
驍	14465
驒	14466
驕	14467
驗	14468
驚	14469
驛	14470
驟	14471
驢	14472
驥	14473
骯	14474
髏	14475
髒	14476
體	14477
髖	14478
髪	14479
髮	14480
鬆	14481
鬍	14482
鬚	14483
鬢	14484
鬥	14485
鬧	14486
鬱	14487
魘	14488
魚	14489
魯	14490
魷	14491
鮑	14492
鮨	14493
鮪	14494
鮭	14495
鮮	14496
鯉	14497
鯊	14498
鯖	14499
鯛	14500
鯨	14501
鯰	14502
鯽	14503
鰍	14504
鰓	14505
鰭	14506
鰲	14507
鰻	14508
鰾	14509
鱈	14510
鱉	14511
鱔	14512
鱗	14513
鱷	14514
鱸	14515
鲱	14516
鳥	14517
鳩	14518
鳳	14519
鳴	14520
鳶	14521
鴉	14522
鴕	14523
鴛	14524
鴦	14525
鴨	14526
鴻	14527
鴿	14528
鵑	14529
鵜	14530
鵝	14531
鵡	14532
鵬	14533
鵰	14534
鵲	14535
鶘	14536
鶩	14537
鶯	14538
鶴	14539
鷗	14540
鷲	14541
鷹	14542
鷺	14543
鸚	14544
鸞	14545
鹕	14546
鹵	14547
鹹	14548
鹼	14549
鹽	14550
麗	14551
麥	14552
麩	14553
麵	14554
麺	14555
黃	14556
點	14557
黨	14558
黴	14559
齁	14560
齊	14561
齋	14562
齒	14563
齡	14564
齢	14565
齣	14566
齦	14567
龅	14568
龍	14569
龐	14570
龔	14571
龕	14572
龜	14573
︰	14574
︱	14575
︶	14576
︿	14577
﹁	14578
﹂	14579
﹍	14580
﹏	14581
﹐	14582
﹑	14583
﹒	14584
﹔	14585
﹕	14586
﹖	14587
﹗	14588
﹙	14589
﹚	14590
﹝	14591
﹞	14592
﹡	14593
﹣	14594
＂	14595
＃	14596
＄	14597
％	14598
＆	14599
＇	14600
＊	14601
＋	14602
－	14603
．	14604
／	14605
０	14606
１	14607
２	14608
３	14609
４	14610
５	14611
６	14612
７	14613
８	14614
９	14615
＜	14616
＝	14617
＞	14618
＠	14619
［	14620
＼	14621
］	14622
＾	14623
＿	14624
｀	14625
ａ	14626
ｂ	14627
ｃ	14628
ｄ	14629
ｅ	14630
ｆ	14631
ｇ	14632
ｈ	14633
ｉ	14634
ｊ	14635
ｋ	14636
ｌ	14637
ｍ	14638
ｎ	14639
ｏ	14640
ｐ	14641
ｑ	14642
ｒ	14643
ｓ	14644
ｔ	14645
ｕ	14646
ｖ	14647
ｗ	14648
ｘ	14649
ｙ	14650
ｚ	14651
｛	14652
｜	14653
｝	14654
～	14655
｡	14656
｢	14657
｣	14658
､	14659
･	14660
ｯ	14661
ｰ	14662
ｲ	14663
ｸ	14664
ｼ	14665
ｽ	14666
ﾄ	14667
ﾉ	14668
ﾌ	14669
ﾗ	14670
ﾙ	14671
ﾝ	14672
ﾞ	14673
ﾟ	14674
￣	14675
￥	14676
👍	14677
🔥	14678
😂	14679
😎	14680
...	14681
丂	14682
丌	14683
乇	14684
乕	14685
乚	14686
乢	14687
乣	14688
乤	14689
乥	14690
乧	14691
乨	14692
乪	14693
乫	14694
乬	14695
乭	14696
乮	14697
乯	14698
乲	14699
乴	14700
乵	14701
乶	14702
乷	14703
乸	14704
乹	14705
乺	14706
乻	14707
乼	14708
乽	14709
乿	14710
亁	14711
亃	14712
亄	14713
亅	14714
亇	14715
亊	14716
亍	14717
亐	14718
亖	14719
亗	14720
亝	14721
亠	14722
亣	14723
亪	14724
亯	14725
亰	14726
亱	14727
亴	14728
亷	14729
亸	14730
亻	14731
亼	14732
亽	14733
亾	14734
仂	14735
仈	14736
仉	14737
仌	14738
仐	14739
仒	14740
仚	14741
仜	14742
仠	14743
仢	14744
仦	14745
仧	14746
仩	14747
仫	14748
仭	14749
仱	14750
仳	14751
仴	14752
仵	14753
仸	14754
仹	14755
仺	14756
仼	14757
仾	14758
伀	14759
伂	14760
伄	14761
伅	14762
伆	14763
伇	14764
伈	14765
伌	14766
伓	14767
伔	14768
伖	14769
伛	14770
伜	14771
伡	14772
伣	14773
伥	14774
伧	14775
伨	14776
伩	14777
伬	14778
伭	14779
伮	14780
伱	14781
伲	14782
伳	14783
伵	14784
伷	14785
伹	14786
伻	14787
伾	14788
伿	14789
佀	14790
佁	14791
佂	14792
佄	14793
佅	14794
佉	14795
佊	14796
佋	14797
佌	14798
佒	14799
佖	14800
佡	14801
佦	14802
佧	14803
佨	14804
佪	14805
佫	14806
佭	14807
佮	14808
佱	14809
佲	14810
佴	14811
佸	14812
佽	14813
佾	14814
侀	14815
侁	14816
侅	14817
侇	14818
侉	14819
侊	14820
侌	14821
侎	14822
侐	14823
侒	14824
侓	14825
侕	14826
侘	14827
侙	14828
侚	14829
侜	14830
侞	14831
侢	14832
侤	14833
俒	14834
俓	14835
俕	14836
俖	14837
俙	14838
俛	14839
俜	14840
俢	14841
俣	14842
俤	14843
俥	14844
俧	14845
俫	14846
俰	14847
俲	14848
俴	14849
俵	14850
俷	14851
俹	14852
俻	14853
俼	14854
俽	14855
俿	14856
倀	14857
倁	14858
倂	14859
倃	14860
倄	14861
倇	14862
倈	14863
倊	14864
倎	14865
倐	14866
倕	14867
倗	14868
倛	14869
倝	14870
倠	14871
倢	14872
倣	14873
倥	14874
倧	14875
倮	14876
倯	14877
倰	14878
倱	14879
倳	14880
倴	14881
倵	14882
倷	14883
倸	14884
倹	14885
倻	14886
倽	14887
倿	14888
偀	14889
偂	14890
偄	14891
偅	14892
偆	14893
偊	14894
偍	14895
偐	14896
偑	14897
偒	14898
偓	14899
偔	14900
偖	14901
偗	14902
偘	14903
偙	14904
偛	14905
偝	14906
偟	14907
偠	14908
偡	14909
偢	14910
偣	14911
偤	14912
偦	14913
偧	14914
偨	14915
偩	14916
偪	14917
偫	14918
偬	14919
偭	14920
偮	14921
偯	14922
偰	14923
偱	14924
偲	14925
偳	14926
偸	14927
偹	14928
偺	14929
偼	14930
偾	14931
傁	14932
傃	14933
傄	14934
傇	14935
傉	14936
傊	14937
傋	14938
傌	14939
傎	14940
傏	14941
傐	14942
傒	14943
傓	14944
傔	14945
傖	14946
傗	14947
傜	14948
傝	14949
傞	14950
傟	14951
傠	14952
傡	14953
傤	14954
傦	14955
傧	14956
傫	14957
傯	14958
傱	14959
傴	14960
傶	14961
傸	14962
傹	14963
傺	14964
傼	14965
傽	14966
僛	14967
僝	14968
僞	14969
僟	14970
僠	14971
僡	14972
僢	14973
僣	14974
僦	14975
僨	14976
僩	14977
僪	14978
僫	14979
僬	14980
僯	14981
僲	14982
僴	14983
僶	14984
僷	14985
僺	14986
僼	14987
僽	14988
僾	14989
僿	14990
儁	14991
儅	14992
儇	14993
儈	14994
儊	14995
儍	14996
儎	14997
儏	14998
儐	14999
儔	15000
儖	15001
儗	15002
儙	15003
儚	15004
儛	15005
儜	15006
儝	15007
儞	15008
儠	15009
儢	15010
儣	15011
儤	15012
儥	15013
儦	15014
儧	15015
儨	15016
儩	15017
儫	15018
儬	15019
儭	15020
儮	15021
儯	15022
儰	15023
儸	15024
儹	15025
儺	15026
儻	15027
儽	15028
兂	15029
兊	15030
兎	15031
兏	15032
兓	15033
兕	15034
兗	15035
兘	15036
兙	15037
兛	15038
兝	15039
兞	15040
兟	15041
兠	15042
兡	15043
兣	15044
兤	15045
兦	15046
兪	15047
兯	15048
兺	15049
兾	15050
兿	15051
冁	15052
冂	15053
冃	15054
冄	15055
冋	15056
冎	15057
冐	15058
冑	15059
冔	15060
冖	15061
冚	15062
冝	15063
冞	15064
冟	15065
冡	15066
冣	15067
冦	15068
冧	15069
冩	15070
冫	15071
冭	15072
冮	15073
冱	15074
冴	15075
冸	15076
冹	15077
冺	15078
冿	15079
凁	15080
凂	15081
凃	15082
凅	15083
凊	15084
凎	15085
凐	15086
凒	15087
凓	15088
凔	15089
凕	15090
凖	15091
凗	15092
凘	15093
凵	15094
刂	15095
刐	15096
刓	15097
刔	15098
刕	15099
刖	15100
刜	15101
刞	15102
刟	15103
刡	15104
刢	15105
刣	15106
刦	15107
刧	15108
刬	15109
刭	15110
刯	15111
刱	15112
刲	15113
刴	15114
刵	15115
刼	15116
刾	15117
刿	15118
剀	15119
剄	15120
剅	15121
剆	15122
剈	15123
剏	15124
剒	15125
剓	15126
剕	15127
剗	15128
剘	15129
剙	15130
剚	15131
剞	15132
剟	15133
剠	15134
剢	15135
剦	15136
剨	15137
剫	15138
剭	15139
剮	15140
剰	15141
剱	15142
剳	15143
剴	15144
剶	15145
剹	15146
剺	15147
剻	15148
剼	15149
剾	15150
劀	15151
劁	15152
劂	15153
劅	15154
劆	15155
劋	15156
劌	15157
劎	15158
劐	15159
劒	15160
劓	15161
劔	15162
劕	15163
劖	15164
劗	15165
劙	15166
劚	15167
劜	15168
劢	15169
劤	15170
劥	15171
劦	15172
劧	15173
劬	15174
劮	15175
劯	15176
劰	15177
劶	15178
劷	15179
劸	15180
劺	15181
劻	15182
劼	15183
劽	15184
勀	15185
勂	15186
勄	15187
勅	15188
勆	15189
勈	15190
勊	15191
勌	15192
勍	15193
勎	15194
勏	15195
勓	15196
勔	15197
勗	15198
勚	15199
勠	15200
勡	15201
勦	15202
勨	15203
勩	15204
勪	15205
勫	15206
勬	15207
勭	15208
勮	15209
勯	15210
勱	15211
勲	15212
勴	15213
勶	15214
勷	15215
勹	15216
勼	15217
勽	15218
匁	15219
匂	15220
匃	15221
匄	15222
匇	15223
匉	15224
匊	15225
匌	15226
匎	15227
匑	15228
匚	15229
匦	15230
匸	15231
匽	15232
卂	15233
卄	15234
卆	15235
卋	15236
卌	15237
卐	15238
卙	15239
卛	15240
卝	15241
卣	15242
卥	15243
卨	15244
卩	15245
卪	15246
卬	15247
卭	15248
卲	15249
卶	15250
卹	15251
卺	15252
卼	15253
卾	15254
厀	15255
厁	15256
厃	15257
厇	15258
厈	15259
厊	15260
厍	15261
厏	15262
厐	15263
厒	15264
厓	15265
厔	15266
厗	15267
厙	15268
厛	15269
厜	15270
厞	15271
厠	15272
厡	15273
厤	15274
厧	15275
厪	15276
厫	15277
厬	15278
厯	15279
厰	15280
厴	15281
厵	15282
厶	15283
厺	15284
厼	15285
厽	15286
厾	15287
叀	15288
叆	15289
叇	15290
叏	15291
叐	15292
叒	15293
叓	15294
叕	15295
叚	15296
叜	15297
叝	15298
叧	15299
叴	15300
叺	15301
叾	15302
叿	15303
吀	15304
吅	15305
吇	15306
吔	15307
吘	15308
吙	15309
吚	15310
吜	15311
吢	15312
吣	15313
吥	15314
吪	15315
吰	15316
吺	15317
吿	15318
呁	15319
呄	15320
呅	15321
呇	15322
呉	15323
呍	15324
呏	15325
呔	15326
呖	15327
呙	15328
呚	15329
呝	15330
呞	15331
呟	15332
呠	15333
呡	15334
呥	15335
呧	15336
呩	15337
呪	15338
呬	15339
呭	15340
呮	15341
呯	15342
呶	15343
呹	15344
呿	15345
咃	15346
咅	15347
咇	15348
咈	15349
咉	15350
咊	15351
咍	15352
咑	15353
咓	15354
咜	15355
咝	15356
咞	15357
咟	15358
咠	15359
咡	15360
咢	15361
咴	15362
哓	15363
哕	15364
哜	15365
哝	15366
哞	15367
哰	15368
哱	15369
哳	15370
哴	15371
哵	15372
哶	15373
哸	15374
哹	15375
哻	15376
哾	15377
哿	15378
唀	15379
唂	15380
唃	15381
唈	15382
唊	15383
唋	15384
唌	15385
唍	15386
唎	15387
唒	15388
唓	15389
唕	15390
唖	15391
唗	15392
唘	15393
唙	15394
唚	15395
唛	15396
唜	15397
唝	15398
唞	15399
唟	15400
唣	15401
唥	15402
唦	15403
唨	15404
唩	15405
唪	15406
唫	15407
唭	15408
唴	15409
唵	15410
唹	15411
唺	15412
唻	15413
唼	15414
唽	15415
唿	15416
啀	15417
啁	15418
啂	15419
啇	15420
啎	15421
啐	15422
啑	15423
啒	15424
啔	15425
啗	15426
啚	15427
啝	15428
啠	15429
啢	15430
啣	15431
啩	15432
啯	15433
啹	15434
啺	15435
啽	15436
啿	15437
喁	15438
喅	15439
喈	15440
喌	15441
喍	15442
喐	15443
喒	15444
喓	15445
喕	15446
喖	15447
喗	15448
喛	15449
喞	15450
喠	15451
喢	15452
喣	15453
喤	15454
喥	15455
喦	15456
喨	15457
喩	15458
喭	15459
喴	15460
喸	15461
喼	15462
喿	15463
嗀	15464
嗁	15465
嗂	15466
嗄	15467
嗈	15468
嗉	15469
嗊	15470
嗋	15471
嗌	15472
嗍	15473
嗏	15474
嗐	15475
嗕	15476
嗘	15477
嗞	15478
嗠	15479
嗥	15480
嗩	15481
嗫	15482
嗭	15483
嗮	15484
嗱	15485
嗴	15486
嗵	15487
嗸	15488
嗹	15489
嗼	15490
嗾	15491
嗿	15492
嘁	15493
嘂	15494
嘃	15495
嘬	15496
嘳	15497
嘵	15498
嘷	15499
嘺	15500
嘼	15501
嘽	15502
嘾	15503
噀	15504
噂	15505
噃	15506
噄	15507
噅	15508
噆	15509
噇	15510
噈	15511
噊	15512
噋	15513
噍	15514
噏	15515
噐	15516
噑	15517
噒	15518
噕	15519
噖	15520
噘	15521
噚	15522
噛	15523
噝	15524
噞	15525
噟	15526
噡	15527
噥	15528
噦	15529
噧	15530
噮	15531
噯	15532
噰	15533
噲	15534
噳	15535
噵	15536
噺	15537
噽	15538
噾	15539
噿	15540
嚁	15541
嚃	15542
嚅	15543
嚆	15544
嚉	15545
嚊	15546
嚋	15547
嚌	15548
嚍	15549
嚑	15550
嚒	15551
嚔	15552
嚖	15553
嚗	15554
嚘	15555
嚙	15556
嚚	15557
嚝	15558
嚞	15559
嚠	15560
嚡	15561
嚢	15562
嚤	15563
嚦	15564
嚧	15565
嚩	15566
嚪	15567
嚫	15568
嚬	15569
嚭	15570
嚯	15571
嚰	15572
嚲	15573
嚳	15574
嚵	15575
嚶	15576
嚸	15577
嚹	15578
嚺	15579
嚻	15580
嚽	15581
嚿	15582
囀	15583
囁	15584
囄	15585
囅	15586
囆	15587
囇	15588
囈	15589
囎	15590
囏	15591
囐	15592
囒	15593
囓	15594
囕	15595
囖	15596
囘	15597
囙	15598
囜	15599
囥	15600
囦	15601
囨	15602
囩	15603
囬	15604
囮	15605
囯	15606
囵	15607
囶	15608
囷	15609
囸	15610
囻	15611
囼	15612
圀	15613
圁	15614
圅	15615
圇	15616
圊	15617
圌	15618
圎	15619
圐	15620
圑	15621
圬	15622
圼	15623
圽	15624
圿	15625
坁	15626
坃	15627
坄	15628
坅	15629
坆	15630
坈	15631
坉	15632
坋	15633
坌	15634
坒	15635
坓	15636
坔	15637
坕	15638
坖	15639
坘	15640
坙	15641
坜	15642
坢	15643
坣	15644
坥	15645
坧	15646
坫	15647
坬	15648
坮	15649
坰	15650
坱	15651
坲	15652
坴	15653
坶	15654
坸	15655
坹	15656
坺	15657
坼	15658
坽	15659
坾	15660
坿	15661
垀	15662
垁	15663
垇	15664
垉	15665
垊	15666
垍	15667
垎	15668
垏	15669
垐	15670
垑	15671
垔	15672
垕	15673
垖	15674
垗	15675
垘	15676
垙	15677
垜	15678
垞	15679
垡	15680
垤	15681
垥	15682
垧	15683
垪	15684
垬	15685
垯	15686
垰	15687
垱	15688
垲	15689
垳	15690
垶	15691
垷	15692
垹	15693
垻	15694
垼	15695
垽	15696
垾	15697
垿	15698
埀	15699
埁	15700
埄	15701
埅	15702
埇	15703
埈	15704
埊	15705
埌	15706
埍	15707
埏	15708
埑	15709
埒	15710
埓	15711
埖	15712
埘	15713
埛	15714
埜	15715
埞	15716
埡	15717
埢	15718
埧	15719
埨	15720
埪	15721
埬	15722
埮	15723
埯	15724
埰	15725
埱	15726
埶	15727
埾	15728
堁	15729
堄	15730
堈	15731
堉	15732
堊	15733
堋	15734
堍	15735
堎	15736
堏	15737
堐	15738
堒	15739
堓	15740
堔	15741
堖	15742
堗	15743
堘	15744
堚	15745
堛	15746
堜	15747
堝	15748
堟	15749
堢	15750
堣	15751
堦	15752
堧	15753
堩	15754
堫	15755
堬	15756
堭	15757
堮	15758
堲	15759
堳	15760
堶	15761
堷	15762
堸	15763
堹	15764
堻	15765
堼	15766
堽	15767
堾	15768
塄	15769
塠	15770
塡	15771
塣	15772
塤	15773
塥	15774
塦	15775
塧	15776
塨	15777
塪	15778
塮	15779
塯	15780
塰	15781
塱	15782
塲	15783
塳	15784
塴	15785
塶	15786
塷	15787
塸	15788
塹	15789
塺	15790
塻	15791
塼	15792
塽	15793
塿	15794
墁	15795
墂	15796
墄	15797
墆	15798
墇	15799
墈	15800
墋	15801
墌	15802
墍	15803
墎	15804
墏	15805
墑	15806
墔	15807
墕	15808
墖	15809
墚	15810
墛	15811
墝	15812
墡	15813
墢	15814
墣	15815
墥	15816
墦	15817
墧	15818
墪	15819
墬	15820
墭	15821
墯	15822
墰	15823
墱	15824
墴	15825
墵	15826
墶	15827
墷	15828
墸	15829
墹	15830
墺	15831
墼	15832
墽	15833
墿	15834
壀	15835
壂	15836
壃	15837
壄	15838
壈	15839
壉	15840
壋	15841
壌	15842
壍	15843
壎	15844
壏	15845
壐	15846
壒	15847
壔	15848
壖	15849
壗	15850
壙	15851
壚	15852
壛	15853
壜	15854
壝	15855
壠	15856
壡	15857
壣	15858
壥	15859
壦	15860
壧	15861
壨	15862
壪	15863
壭	15864
壱	15865
壴	15866
壷	15867
壸	15868
壻	15869
壼	15870
壾	15871
壿	15872
夀	15873
夁	15874
夂	15875
夃	15876
夅	15877
夆	15878
夈	15879
夊	15880
夋	15881
夌	15882
夎	15883
夑	15884
夒	15885
夓	15886
夗	15887
夘	15888
夛	15889
夝	15890
夞	15891
夡	15892
夣	15893
夤	15894
夦	15895
夨	15896
夰	15897
夲	15898
夳	15899
夵	15900
夶	15901
夻	15902
夽	15903
奫	15904
奯	15905
奰	15906
奱	15907
奲	15908
奵	15909
奷	15910
奺	15911
奻	15912
奼	15913
奾	15914
奿	15915
妀	15916
妁	15917
妅	15918
妉	15919
妋	15920
妌	15921
妎	15922
妏	15923
妐	15924
妑	15925
妔	15926
妕	15927
妗	15928
妚	15929
妛	15930
妜	15931
妟	15932
妠	15933
妡	15934
妢	15935
妦	15936
妬	15937
妭	15938
妯	15939
妰	15940
妱	15941
妴	15942
妵	15943
妷	15944
妸	15945
妺	15946
妼	15947
妽	15948
妿	15949
姀	15950
姂	15951
姃	15952
姄	15953
姅	15954
姇	15955
姈	15956
姌	15957
姎	15958
姏	15959
姕	15960
姖	15961
姘	15962
姙	15963
姛	15964
姞	15965
姟	15966
姠	15967
姡	15968
姢	15969
姤	15970
姧	15971
姭	15972
姮	15973
姯	15974
姱	15975
姲	15976
姳	15977
姴	15978
姵	15979
姶	15980
姷	15981
姸	15982
姼	15983
姽	15984
姾	15985
娀	15986
娂	15987
娈	15988
娊	15989
娌	15990
娎	15991
娏	15992
娐	15993
娔	15994
娖	15995
娗	15996
娙	15997
娚	15998
娞	15999
娡	16000
娢	16001
娤	16002
娦	16003
娧	16004
娨	16005
娫	16006
娬	16007
娭	16008
娮	16009
娯	16010
娰	16011
娳	16012
娵	16013
娸	16014
娹	16015
娺	16016
娽	16017
娿	16018
婂	16019
婃	16020
婅	16021
婇	16022
婈	16023
婋	16024
婌	16025
婍	16026
婎	16027
婏	16028
婐	16029
婑	16030
婒	16031
婓	16032
婔	16033
婖	16034
婗	16035
婘	16036
婙	16037
婛	16038
婝	16039
婞	16040
婟	16041
媅	16042
媇	16043
媈	16044
媉	16045
媊	16046
媋	16047
媌	16048
媍	16049
媎	16050
媏	16051
媐	16052
媑	16053
媓	16054
媔	16055
媕	16056
媖	16057
媗	16058
媘	16059
媙	16060
媜	16061
媝	16062
媟	16063
媠	16064
媡	16065
媢	16066
媣	16067
媤	16068
媥	16069
媦	16070
媨	16071
媩	16072
媫	16073
媬	16074
媭	16075
媮	16076
媯	16077
媰	16078
媱	16079
媴	16080
媵	16081
媶	16082
媷	16083
媸	16084
媹	16085
媺	16086
媼	16087
媿	16088
嫄	16089
嫆	16090
嫇	16091
嫈	16092
嫊	16093
嫋	16094
嫍	16095
嫏	16096
嫐	16097
嫒	16098
嫓	16099
嫕	16100
嫗	16101
嫙	16102
嫛	16103
嫜	16104
嫝	16105
嫞	16106
嫟	16107
嫠	16108
嫢	16109
嫥	16110
嫪	16111
嫫	16112
嫬	16113
嫭	16114
嫮	16115
嫯	16116
嫰	16117
嫱	16118
嫴	16119
嫷	16120
嫸	16121
嫹	16122
嫺	16123
嫼	16124
嫾	16125
嫿	16126
嬀	16127
嬁	16128
嬂	16129
嬃	16130
嬄	16131
嬆	16132
嬇	16133
嬈	16134
嬊	16135
嬋	16136
嬍	16137
嬎	16138
嬏	16139
嬑	16140
嬒	16141
嬓	16142
嬔	16143
嬕	16144
嬘	16145
嬙	16146
嬚	16147
嬜	16148
嬝	16149
嬞	16150
嬠	16151
嬡	16152
嬣	16153
嬥	16154
嬦	16155
嬧	16156
嬨	16157
嬩	16158
嬫	16159
嬬	16160
嬭	16161
嬯	16162
嬱	16163
嬲	16164
嬳	16165
嬵	16166
嬶	16167
嬺	16168
嬻	16169
嬼	16170
嬽	16171
嬾	16172
孁	16173
孂	16174
孄	16175
孅	16176
孆	16177
孇	16178
孈	16179
孓	16180
孥	16181
孾	16182
宀	16183
宂	16184
宄	16185
宆	16186
宊	16187
宍	16188
宎	16189
宐	16190
宑	16191
宒	16192
宔	16193
宖	16194
宧	16195
宨	16196
宩	16197
宬	16198
宭	16199
宯	16200
宱	16201
宲	16202
宷	16203
宺	16204
宻	16205
宼	16206
寀	16207
寁	16208
寃	16209
寈	16210
寉	16211
寊	16212
寋	16213
寍	16214
寏	16215
寑	16216
寕	16217
寙	16218
寚	16219
寜	16220
寠	16221
寣	16222
寪	16223
寭	16224
寯	16225
寱	16226
寲	16227
寴	16228
寷	16229
寽	16230
尀	16231
尃	16232
尅	16233
尌	16234
尐	16235
尒	16236
尓	16237
尗	16238
尙	16239
尛	16240
尜	16241
尞	16242
尟	16243
尠	16244
尡	16245
尢	16246
尣	16247
尥	16248
尦	16249
尨	16250
尩	16251
尪	16252
尫	16253
尭	16254
尮	16255
尰	16256
尲	16257
尳	16258
尵	16259
尶	16260
屇	16261
屒	16262
屓	16263
屔	16264
屖	16265
屘	16266
屙	16267
屚	16268
屛	16269
屝	16270
屟	16271
屣	16272
屧	16273
屨	16274
屩	16275
屫	16276
屭	16277
屮	16278
屲	16279
屳	16280
屴	16281
屵	16282
屶	16283
屷	16284
屺	16285
屻	16286
屼	16287
屽	16288
屾	16289
岃	16290
岄	16291
岅	16292
岆	16293
岇	16294
岈	16295
岉	16296
岊	16297
岋	16298
岍	16299
岎	16300
岏	16301
岒	16302
岓	16303
岕	16304
岜	16305
岝	16306
岞	16307
岟	16308
岠	16309
岢	16310
岣	16311
岤	16312
岥	16313
岦	16314
岧	16315
岪	16316
岱d	16317
岵	16318
岽	16319
峓	16320
峔	16321
峕	16322
峖	16323
峚	16324
峛	16325
峜	16326
峝	16327
峞	16328
峟	16329
峠	16330
峢	16331
峣	16332
峧	16333
峩	16334
峫	16335
峬	16336
峮	16337
峱	16338
峲	16339
峳	16340
峵	16341
峷	16342
峸	16343
峹	16344
峺	16345
峼	16346
峾	16347
崄	16348
崅	16349
崈	16350
崉	16351
崊	16352
崋	16353
崌	16354
崍	16355
崏	16356
崐	16357
崓	16358
崕	16359
崘	16360
崚	16361
崜	16362
崝	16363
崞	16364
崟	16365
崠	16366
崡	16367
崢	16368
崣	16369
崦	16370
崨	16371
崪	16372
崫	16373
崬	16374
崯	16375
崰	16376
崱	16377
崲	16378
崳	16379
崶	16380
崷	16381
崸	16382
崹	16383
崺	16384
崻	16385
崼	16386
崾	16387
崿	16388
嵀	16389
嵂	16390
嵃	16391
嵄	16392
嵅	16393
嵆	16394
嵈	16395
嵉	16396
嵎	16397
嵏	16398
嵒	16399
嵓	16400
嵔	16401
嵕	16402
嵖	16403
嵗	16404
嵙	16405
嵚	16406
嵛	16407
嵜	16408
嵝	16409
嵞	16410
嵟	16411
嵠	16412
嵡	16413
嵢	16414
嵣	16415
嵤	16416
嵥	16417
嵧	16418
嵨	16419
嵪	16420
嵫	16421
嵭	16422
嵮	16423
嵰	16424
嵲	16425
嵳	16426
嵵	16427
嵶	16428
嵷	16429
嵸	16430
嵹	16431
嵺	16432
嵻	16433
嵼	16434
嵾	16435
嵿	16436
嶀	16437
嶁	16438
嶃	16439
嶅	16440
嶆	16441
嶈	16442
嶉	16443
嶊	16444
嶌	16445
嶍	16446
嶎	16447
嶐	16448
嶑	16449
嶒	16450
嶓	16451
嶔	16452
嶕	16453
嶖	16454
嶗	16455
嶘	16456
嶚	16457
嶛	16458
嶜	16459
嶝	16460
嶞	16461
嶟	16462
嶠	16463
嶾	16464
嶿	16465
巀	16466
巃	16467
巄	16468
巆	16469
巇	16470
巈	16471
巉	16472
巊	16473
巋	16474
巌	16475
巎	16476
巏	16477
巐	16478
巑	16479
巓	16480
巕	16481
巗	16482
巘	16483
巙	16484
巚	16485
巛	16486
巜	16487
巟	16488
巠	16489
巣	16490
巤	16491
巪	16492
巬	16493
巭	16494
巰	16495
巵	16496
巶	16497
巹	16498
巺	16499
巼	16500
帀	16501
帄	16502
帇	16503
帉	16504
帊	16505
帋	16506
帎	16507
帒	16508
帓	16509
帗	16510
帞	16511
帟	16512
帠	16513
帡	16514
帤	16515
帨	16516
帩	16517
帪	16518
帬	16519
帱	16520
帲	16521
帴	16522
帵	16523
帺	16524
帻	16525
帾	16526
帿	16527
幁	16528
幃	16529
幇	16530
幈	16531
幉	16532
幊	16533
幋	16534
幍	16535
幎	16536
幏	16537
幐	16538
幑	16539
幒	16540
幖	16541
幗	16542
幘	16543
幙	16544
幚	16545
幛	16546
幜	16547
幝	16548
幞	16549
幠	16550
幤	16551
幥	16552
幦	16553
幧	16554
幨	16555
幩	16556
幬	16557
幭	16558
幮	16559
幯	16560
幰	16561
幱	16562
幵	16563
幷	16564
庀	16565
庂	16566
庅	16567
庈	16568
庋	16569
庌	16570
庎	16571
庒	16572
庘	16573
庛	16574
庝	16575
庡	16576
庢	16577
庣	16578
庤	16579
庥	16580
庨	16581
庩	16582
庮	16583
庯	16584
庰	16585
庱	16586
庲	16587
庳	16588
庺	16589
庻	16590
庽	16591
庿	16592
廀	16593
廄	16594
廅	16595
廑	16596
廒	16597
廫	16598
廭	16599
廮	16600
廯	16601
廰	16602
廱	16603
廲	16604
廵	16605
廸	16606
廹	16607
廻	16608
廼	16609
廽	16610
廾	16611
弅	16612
弆	16613
弉	16614
弌	16615
弍	16616
弎	16617
弐	16618
弖	16619
弙	16620
弚	16621
弜	16622
弝	16623
弞	16624
弡	16625
弣	16626
弤	16627
弨	16628
弪	16629
弫	16630
弬	16631
弮	16632
弰	16633
弳	16634
弴	16635
弶	16636
弸	16637
弻	16638
弽	16639
弿	16640
彁	16641
彂	16642
彃	16643
彄	16644
彇	16645
彉	16646
彋	16647
彍	16648
彏	16649
彐	16650
彑	16651
彔	16652
彚	16653
彛	16654
彜	16655
彡	16656
彣	16657
彨	16658
彮	16659
彯	16660
彲	16661
彳	16662
彵	16663
彶	16664
彸	16665
彺	16666
彽	16667
彾	16668
徃	16669
徆	16670
徍	16671
徏	16672
徔	16673
徖	16674
徚	16675
徛	16676
徝	16677
徟	16678
徢	16679
徣	16680
徤	16681
徥	16682
徦	16683
徧	16684
徫	16685
徯	16686
徰	16687
徱	16688
徲	16689
徶	16690
徻	16691
徾	16692
忀	16693
忁	16694
忄	16695
忇	16696
忈	16697
忉	16698
忋	16699
忎	16700
忓	16701
忛	16702
忢	16703
忣	16704
忥	16705
忦	16706
忨	16707
忩	16708
忬	16709
忭	16710
忮	16711
忯	16712
忲	16713
忶	16714
忷	16715
忸	16716
忹	16717
忺	16718
忼	16719
怃	16720
怄	16721
怇	16722
怈	16723
怊	16724
怍	16725
怩	16726
怫	16727
怺	16728
怽	16729
怾	16730
恀	16731
恄	16732
恅	16733
恇	16734
恈	16735
恉	16736
恊	16737
恌	16738
恎	16739
恏	16740
恑	16741
恓	16742
恔	16743
恖	16744
恗	16745
恘	16746
恛	16747
恜	16748
恝	16749
恞	16750
恟	16751
恠	16752
恡	16753
恦	16754
恧	16755
恱	16756
恲	16757
恴	16758
恷	16759
恹	16760
恾	16761
悀	16762
悂	16763
悃	16764
悇	16765
悈	16766
悊	16767
悋	16768
悏	16769
悐	16770
悑	16771
悒	16772
悓	16773
悕	16774
悙	16775
悛	16776
悜	16777
悝	16778
悞	16779
悡	16780
悧	16781
悮	16782
悰	16783
悷	16784
悹	16785
悺	16786
悾	16787
悿	16788
惀	16789
惁	16790
惂	16791
惃	16792
惄	16793
惈	16794
惉	16795
惍	16796
惎	16797
惏	16798
惐	16799
惒	16800
惖	16801
惗	16802
惝	16803
惞	16804
惣	16805
惤	16806
惪	16807
惲	16808
惵	16809
惷	16810
惸	16811
惻	16812
惼	16813
惽	16814
惾	16815
惿	16816
愀	16817
愂	16818
愃	16819
愄	16820
愅	16821
愇	16822
愊	16823
愋	16824
愌	16825
愐	16826
愑	16827
愗	16828
愙	16829
愝	16830
愞	16831
愢	16832
愥	16833
愦	16834
愨	16835
愪	16836
愭	16837
愯	16838
愱	16839
愲	16840
愳	16841
愴	16842
愵	16843
愶	16844
愸	16845
愹	16846
愺	16847
愻	16848
愼	16849
愽	16850
愾	16851
慀	16852
慁	16853
慂	16854
慃	16855
慆	16856
慊	16857
慝	16858
慯	16859
慱	16860
慲	16861
慴	16862
慸	16863
慺	16864
慻	16865
慼	16866
慽	16867
慿	16868
憀	16869
憁	16870
憃	16871
憄	16872
憅	16873
憆	16874
憇	16875
憈	16876
憉	16877
憌	16878
憍	16879
憏	16880
憒	16881
憓	16882
憗	16883
憙	16884
憛	16885
憜	16886
憝	16887
憞	16888
憟	16889
憠	16890
憡	16891
憢	16892
憣	16893
憥	16894
憦	16895
憯	16896
憰	16897
憱	16898
憳	16899
憴	16900
憵	16901
憷	16902
憸	16903
憹	16904
憺	16905
憻	16906
憼	16907
憽	16908
憿	16909
懀	16910
懁	16911
懃	16912
懄	16913
懅	16914
懆	16915
懌	16916
懎	16917
懏	16918
懐	16919
懓	16920
懔	16921
懖	16922
懗	16923
懘	16924
懙	16925
懚	16926
懛	16927
懝	16928
懞	16929
懟	16930
懡	16931
懣	16932
懤	16933
懥	16934
懧	16935
懩	16936
懪	16937
懫	16938
懬	16939
懭	16940
懮	16941
懯	16942
懱	16943
懳	16944
懴	16945
懹	16946
懻	16947
戁	16948
戃	16949
戄	16950
戅	16951
戆	16952
戉	16953
戋	16954
戓	16955
戔	16956
戙	16957
戜	16958
戝	16959
戞	16960
戣	16961
戤	16962
戥	16963
戧	16964
戨	16965
戩	16966
戫	16967
戭	16968
戵	16969
戹	16970
戺	16971
戼	16972
戽	16973
扂	16974
扄	16975
扅	16976
扆	16977
扊	16978
扌	16979
扏	16980
抂	16981
抃	16982
抆	16983
抈	16984
抋	16985
抌	16986
抍	16987
抎	16988
抏	16989
抐	16990
抔	16991
抝	16992
抣	16993
抦	16994
抧	16995
抩	16996
抪	16997
抭	16998
抮	16999
抯	17000
抰	17001
抲	17002
抴	17003
抶	17004
抷	17005
抸	17006
抺	17007
抻	17008
抾	17009
拀	17010
拑	17011
拕	17012
拝	17013
拞	17014
拠	17015
拤	17016
拪	17017
拫	17018
拰	17019
拲	17020
拶	17021
拸	17022
拹	17023
拻	17024
挀	17025
挃	17026
挄	17027
挅	17028
挆	17029
挊	17030
挋	17031
挍	17032
挏	17033
挒	17034
挓	17035
挔	17036
挗	17037
挘	17038
挢	17039
挧	17040
挬	17041
挭	17042
挰	17043
挱	17044
挴	17045
挵	17046
挶	17047
挷	17048
挸	17049
挻	17050
挼	17051
挿	17052
捀	17053
捁	17054
捃	17055
捄	17056
捈	17057
捊	17058
捑	17059
捓	17060
捘	17061
捙	17062
捚	17063
捛	17064
捜	17065
捠	17066
捤	17067
捦	17068
捪	17069
捫	17070
捬	17071
捰	17072
捳	17073
捴	17074
捵	17075
捸	17076
捹	17077
捼	17078
捾	17079
捿	17080
掁	17081
掄	17082
掅	17083
掆	17084
掊	17085
掍	17086
掎	17087
掑	17088
掓	17089
掔	17090
掕	17091
掗	17092
掚	17093
掝	17094
掦	17095
掫	17096
掭	17097
掮	17098
掯	17099
掵	17100
掶	17101
掹	17102
掻	17103
掼	17104
掽	17105
掿	17106
揁	17107
揎	17108
揞	17109
揠	17110
揫	17111
揬	17112
揯	17113
揰	17114
揲	17115
揷	17116
揺	17117
揻	17118
揼	17119
揾	17120
揿	17121
搃	17122
搄	17123
搆	17124
搇	17125
搈	17126
搉	17127
搊	17128
搋	17129
搌	17130
搎	17131
搑	17132
搒	17133
搕	17134
搘	17135
搚	17136
搛	17137
搝	17138
搟	17139
搠	17140
搢	17141
搣	17142
搤	17143
搥	17144
搦	17145
搧	17146
搫	17147
搮	17148
搯	17149
搴	17150
搷	17151
搸	17152
搹	17153
搻	17154
搼	17155
搾	17156
搿	17157
摂	17158
摃	17159
摅	17160
摉	17161
摌	17162
摍	17163
摏	17164
摐	17165
摑	17166
摓	17167
摕	17168
摖	17169
摚	17170
摛	17171
摜	17172
摝	17173
摠	17174
摣	17175
摤	17176
摥	17177
摦	17178
摫	17179
摬	17180
摮	17181
摲	17182
摴	17183
摵	17184
摶	17185
摼	17186
摽	17187
摾	17188
摿	17189
撀	17190
撁	17191
撄	17192
撆	17193
撉	17194
撊	17195
撋	17196
撌	17197
撎	17198
撔	17199
撖	17200
撗	17201
撘	17202
撙	17203
撛	17204
撟	17205
撠	17206
撡	17207
撣	17208
撦	17209
撧	17210
撨	17211
撪	17212
撯	17213
撳	17214
撴	17215
撶	17216
撹	17217
撺	17218
撽	17219
撾	17220
擃	17221
擆	17222
擈	17223
擉	17224
擌	17225
擐	17226
擑	17227
擓	17228
擗	17229
擙	17230
擛	17231
擤	17232
擻	17233
攁	17234
攂	17235
攃	17236
攄	17237
攅	17238
攆	17239
攇	17240
攈	17241
攉	17242
攊	17243
攋	17244
攌	17245
攍	17246
攎	17247
攐	17248
攑	17249
攓	17250
攕	17251
攖	17252
攗	17253
攚	17254
攛	17255
攟	17256
攡	17257
攧	17258
攨	17259
攭	17260
攮	17261
攰	17262
攱	17263
攲	17264
攳	17265
攴	17266
攵	17267
攷	17268
攺	17269
攽	17270
敀	17271
敁	17272
敂	17273
敆	17274
敇	17275
敉	17276
敐	17277
敒	17278
敔	17279
敚	17280
敜	17281
敟	17282
敠	17283
敡	17284
敤	17285
敨	17286
敫	17287
敮	17288
敯	17289
敳	17290
敹	17291
敼	17292
敽	17293
敾	17294
敿	17295
斅	17296
斆	17297
斈	17298
斊	17299
斏	17300
斒	17301
斔	17302
斕	17303
斖	17304
斘	17305
斚	17306
斞	17307
斠	17308
斣	17309
斨	17310
斪	17311
斮	17312
斱	17313
斲	17314
斴	17315
斶	17316
斸	17317
斻	17318
斾	17319
旀	17320
旂	17321
旈	17322
旉	17323
旊	17324
旍	17325
旐	17326
旑	17327
旓	17328
旔	17329
旕	17330
旘	17331
旙	17332
旚	17333
旛	17334
旜	17335
旝	17336
旞	17337
旟	17338
旡	17339
旣	17340
旪	17341
旫	17342
旯	17343
旰	17344
昃	17345
昜	17346
昝	17347
昞	17348
昡	17349
昢	17350
昣	17351
昤	17352
昦	17353
昩	17354
昪	17355
昫	17356
昬	17357
昮	17358
昰	17359
昲	17360
昷	17361
昸	17362
昹	17363
昻	17364
昽	17365
昿	17366
晀	17367
晄	17368
晅	17369
晆	17370
晇	17371
晈	17372
晊	17373
晍	17374
晎	17375
晐	17376
晑	17377
晘	17378
晙	17379
晛	17380
晜	17381
晠	17382
晡	17383
晣	17384
晥	17385
晧	17386
晪	17387
晫	17388
晬	17389
晭	17390
晱	17391
晲	17392
晳	17393
晸	17394
晹	17395
晻	17396
晼	17397
晽	17398
晿	17399
暁	17400
暃	17401
暅	17402
暆	17403
暊	17404
暍	17405
暎	17406
暏	17407
暒	17408
暓	17409
暔	17410
暕	17411
暘	17412
暙	17413
暚	17414
暛	17415
暜	17416
暞	17417
暟	17418
暡	17419
暣	17420
暤	17421
暥	17422
暦	17423
暩	17424
暪	17425
暬	17426
暭	17427
暯	17428
暰	17429
暲	17430
暳	17431
暵	17432
暶	17433
暷	17434
暺	17435
暻	17436
暼	17437
暽	17438
暾	17439
曀	17440
曁	17441
曂	17442
曃	17443
曅	17444
曈	17445
曊	17446
曋	17447
曌	17448
曍	17449
曎	17450
曏	17451
曐	17452
曑	17453
曒	17454
曓	17455
曔	17456
曕	17457
曗	17458
曘	17459
曚	17460
曛	17461
曞	17462
曟	17463
曡	17464
曢	17465
曣	17466
曤	17467
曥	17468
曧	17469
曪	17470
曫	17471
曭	17472
曮	17473
曯	17474
曱	17475
曵	17476
曶	17477
曺	17478
曻	17479
曽	17480
朁	17481
朂	17482
朄	17483
朊	17484
朳	17485
朶	17486
朸	17487
朹	17488
朻	17489
朼	17490
朾	17491
朿	17492
杁	17493
杄	17494
杇	17495
杊	17496
杋	17497
杌	17498
杍	17499
杔	17500
杗	17501
杘	17502
杙	17503
杚	17504
杛	17505
杝	17506
杢	17507
杣	17508
杤	17509
杦	17510
杧	17511
杩	17512
杫	17513
杬	17514
杮	17515
杴	17516
杶	17517
杸	17518
杹	17519
杺	17520
杻	17521
杽	17522
枀	17523
枃	17524
枅	17525
枆	17526
枊	17527
枌	17528
枍	17529
枎	17530
枏	17531
枑	17532
枒	17533
枔	17534
枖	17535
枘	17536
枙	17537
枛	17538
枟	17539
枠	17540
枡	17541
枦	17542
枨	17543
枬	17544
枮	17545
枲	17546
枴	17547
枵	17548
枹	17549
枺	17550
枼	17551
枽	17552
枾	17553
枿	17554
柀	17555
柁	17556
柃	17557
柅	17558
柆	17559
柇	17560
柈	17561
柉	17562
柊	17563
柋	17564
柌	17565
柕	17566
柗	17567
柙	17568
柛	17569
柝	17570
柟	17571
柡	17572
柦	17573
柧	17574
柫	17575
柭	17576
柮	17577
柲	17578
柶	17579
柷	17580
柸	17581
柹	17582
柼	17583
柾	17584
栂	17585
栆	17586
栊	17587
栍	17588
栐	17589
栔	17590
栕	17591
栘	17592
栙	17593
栚	17594
栛	17595
栞	17596
栟	17597
栠	17598
栢	17599
栣	17600
栤	17601
栥	17602
栦	17603
栨	17604
栫	17605
栬	17606
栭	17607
栮	17608
栰	17609
栳	17610
栴	17611
栵	17612
栶	17613
栻	17614
栿	17615
桄	17616
桇	17617
桊	17618
桍	17619
桏	17620
桒	17621
桖	17622
桗	17623
桘	17624
桙	17625
桛	17626
桤	17627
桴	17628
梃	17629
梉	17630
梊	17631
梌	17632
梍	17633
梐	17634
梑	17635
梒	17636
梔	17637
梕	17638
梖	17639
梘	17640
梙	17641
梚	17642
梛	17643
梜	17644
梞	17645
梠	17646
梡	17647
梣	17648
梤	17649
梥	17650
梩	17651
梪	17652
梫	17653
梬	17654
梮	17655
梱	17656
梲	17657
梴	17658
梷	17659
梸	17660
梹	17661
梺	17662
梻	17663
梼	17664
梽	17665
梾	17666
梿	17667
棁	17668
棃	17669
棅	17670
棆	17671
棈	17672
棌	17673
棎	17674
棐	17675
棑	17676
棓	17677
棔	17678
棖	17679
棛	17680
棜	17681
棝	17682
棞	17683
棡	17684
棢	17685
棤	17686
棥	17687
棦	17688
棨	17689
棩	17690
棪	17691
棫	17692
棭	17693
棳	17694
棶	17695
棸	17696
棻	17697
棼	17698
棾	17699
椀	17700
椂	17701
椃	17702
椆	17703
椇	17704
椈	17705
椏	17706
椐	17707
椑	17708
椓	17709
椔	17710
椕	17711
椖	17712
椗	17713
椘	17714
椙	17715
椚	17716
椛	17717
椝	17718
椞	17719
椟	17720
椠	17721
椡	17722
椢	17723
椣	17724
椥	17725
椦	17726
椧	17727
椨	17728
椩	17729
椫	17730
椬	17731
椮	17732
椱	17733
椳	17734
椶	17735
椸	17736
椺	17737
椻	17738
椼	17739
椾	17740
楀	17741
楁	17742
楃	17743
楄	17744
楅	17745
楆	17746
楈	17747
楉	17748
楋	17749
楌	17750
楍	17751
楏	17752
楐	17753
楑	17754
楒	17755
楕	17756
楗	17757
楘	17758
楙	17759
楜	17760
楟	17761
楡	17762
楦	17763
榀	17764
榇	17765
榌	17766
榍	17767
榎	17768
榏	17769
榑	17770
榒	17771
榓	17772
榗	17773
榙	17774
榚	17775
榝	17776
榞	17777
榟	17778
榠	17779
榡	17780
榢	17781
榣	17782
榤	17783
榥	17784
榦	17785
榩	17786
榪	17787
榬	17788
榯	17789
榰	17790
榲	17791
榳	17792
榵	17793
榶	17794
榸	17795
榹	17796
榺	17797
榼	17798
榽	17799
榾	17800
榿	17801
槀	17802
槂	17803
槄	17804
槆	17805
槈	17806
槉	17807
槒	17808
槔	17809
槖	17810
槗	17811
槙	17812
槚	17813
槜	17814
槝	17815
槞	17816
槠	17817
槡	17818
槢	17819
槣	17820
槥	17821
槦	17822
槧	17823
槨	17824
槩	17825
槪	17826
槬	17827
槰	17828
槱	17829
槴	17830
槵	17831
槶	17832
槸	17833
槹	17834
槺	17835
樀	17836
樃	17837
樄	17838
樅	17839
樇	17840
樈	17841
樉	17842
樋	17843
樌	17844
樍	17845
樎	17846
樐	17847
樒	17848
樕	17849
樖	17850
樘	17851
樚	17852
樛	17853
樜	17854
樝	17855
樠	17856
樤	17857
樥	17858
樦	17859
樬	17860
樭	17861
樮	17862
樰	17863
樲	17864
樳	17865
樴	17866
樶	17867
樻	17868
樼	17869
樿	17870
橀	17871
橁	17872
橂	17873
橅	17874
橈	17875
橉	17876
橊	17877
橌	17878
橍	17879
橎	17880
橑	17881
橒	17882
橓	17883
橕	17884
橗	17885
橜	17886
橥	17887
橻	17888
橽	17889
橿	17890
檂	17891
檃	17892
檅	17893
檆	17894
檇	17895
檈	17896
檉	17897
檊	17898
檋	17899
檌	17900
檍	17901
檏	17902
檑	17903
檒	17904
檓	17905
檕	17906
檖	17907
檘	17908
檙	17909
檚	17910
檛	17911
檝	17912
檞	17913
檟	17914
檠	17915
檡	17916
檣	17917
檤	17918
檥	17919
檦	17920
檧	17921
檨	17922
檪	17923
檫	17924
檭	17925
檮	17926
檰	17927
檱	17928
檲	17929
檵	17930
檶	17931
檹	17932
檺	17933
檾	17934
檿	17935
櫀	17936
櫁	17937
櫂	17938
櫄	17939
櫅	17940
櫆	17941
櫇	17942
櫈	17943
櫉	17944
櫊	17945
櫋	17946
櫌	17947
櫍	17948
櫏	17949
櫐	17950
櫒	17951
櫓	17952
櫔	17953
櫕	17954
櫖	17955
櫘	17956
櫙	17957
櫜	17958
櫝	17959
櫞	17960
櫟	17961
櫠	17962
櫡	17963
櫢	17964
櫣	17965
櫤	17966
櫦	17967
櫧	17968
櫨	17969
櫩	17970
櫪	17971
櫬	17972
櫮	17973
櫯	17974
櫱	17975
櫲	17976
櫳	17977
櫴	17978
櫵	17979
櫶	17980
櫷	17981
櫼	17982
櫽	17983
櫾	17984
櫿	17985
欀	17986
欁	17987
欂	17988
欃	17989
欅	17990
欆	17991
欇	17992
欈	17993
欉	17994
欋	17995
欌	17996
欎	17997
欏	17998
欑	17999
欔	18000
欕	18001
欗	18002
欘	18003
欚	18004
欛	18005
欜	18006
欝	18007
欟	18008
欥	18009
欨	18010
欩	18011
欫	18012
欬	18013
欭	18014
欮	18015
欯	18016
欷	18017
歃	18018
歔	18019
歕	18020
歖	18021
歘	18022
歚	18023
歜	18024
歝	18025
歞	18026
歟	18027
歠	18028
歨	18029
歫	18030
歬	18031
歭	18032
歮	18033
歰	18034
歱	18035
歵	18036
歶	18037
歺	18038
歽	18039
歾	18040
殀	18041
殂	18042
殅	18043
殈	18044
殌	18045
殍	18046
殎	18047
殏	18048
殐	18049
殔	18050
殕	18051
殛	18052
殝	18053
殟	18054
殠	18055
殢	18056
殣	18057
殥	18058
殦	18059
殧	18060
殨	18061
殩	18062
殪	18063
殫	18064
殬	18065
殮	18066
殰	18067
殱	18068
殳	18069
殶	18070
殹	18071
殻	18072
殾	18073
毇	18074
毈	18075
毊	18076
毑	18077
毖	18078
毚	18079
毜	18080
毝	18081
毞	18082
毟	18083
毠	18084
毢	18085
毣	18086
毤	18087
毦	18088
毨	18089
毩	18090
毪	18091
毬	18092
毭	18093
毮	18094
毰	18095
毱	18096
毲	18097
毳	18098
毴	18099
毵	18100
毶	18101
毷	18102
毸	18103
毹	18104
毺	18105
毾	18106
毿	18107
氁	18108
氃	18109
氄	18110
氅	18111
氆	18112
氇	18113
氉	18114
氊	18115
氋	18116
氌	18117
氍	18118
氎	18119
氒	18120
氕	18121
氜	18122
氝	18123
氞	18124
氠	18125
氥	18126
氬	18127
氭	18128
氱	18129
氶	18130
氺	18131
氻	18132
汄	18133
汅	18134
汈	18135
汌	18136
汍	18137
汏	18138
汑	18139
汔	18140
汖	18141
汘	18142
沎	18143
沑	18144
沗	18145
沘	18146
沚	18147
沜	18148
沝	18149
沞	18150
沠	18151
沨	18152
沬	18153
沯	18154
沰	18155
沲	18156
沴	18157
沵	18158
沶	18159
沷	18160
沺	18161
泀	18162
泃	18163
泆	18164
泇	18165
泈	18166
泋	18167
泍	18168
泎	18169
泐	18170
泑	18171
泖	18172
泘	18173
泙	18174
泝	18175
泟	18176
泤	18177
泦	18178
泩	18179
泭	18180
泲	18181
泴	18182
泶	18183
泹	18184
泿	18185
洀	18186
洂	18187
洃	18188
洅	18189
洆	18190
洇	18191
洈	18192
洉	18193
洊	18194
洍	18195
洏	18196
洐	18197
洔	18198
洕	18199
洖	18200
洚	18201
洜	18202
洟	18203
洠	18204
洢	18205
洣	18206
洤	18207
洦	18208
洨	18209
洫	18210
洭	18211
洯	18212
洰	18213
洳	18214
洴	18215
洷	18216
洿	18217
浀	18218
浂	18219
浈	18220
浉	18221
浐	18222
浖	18223
浗	18224
浘	18225
浛	18226
浝	18227
浞	18228
浡	18229
浢	18230
浤	18231
浨	18232
浫	18233
浭	18234
浰	18235
浳	18236
浵	18237
浶	18238
浹	18239
浺	18240
浻	18241
浼	18242
浽	18243
浾	18244
浿	18245
涀	18246
涁	18247
涃	18248
涄	18249
涆	18250
涊	18251
涋	18252
涍	18253
涏	18254
涐	18255
涖	18256
涗	18257
涘	18258
涚	18259
涜	18260
涥	18261
涫	18262
涬	18263
涭	18264
涰	18265
涱	18266
涳	18267
涴	18268
涷	18269
涹	18270
涺	18271
涻	18272
涽	18273
涾	18274
淁	18275
淂	18276
淃	18277
淈	18278
淍	18279
淸	18280
淽	18281
淾	18282
淿	18283
渀	18284
渁	18285
渂	18286
渃	18287
渄	18288
渆	18289
渇	18290
渏	18291
渒	18292
渓	18293
渕	18294
渘	18295
渞	18296
渟	18297
渢	18298
渧	18299
渨	18300
渪	18301
渫	18302
渮	18303
渱	18304
渳	18305
渵	18306
渶	18307
渷	18308
渻	18309
渼	18310
渽	18311
渿	18312
湀	18313
湁	18314
湂	18315
湅	18316
湆	18317
湇	18318
湈	18319
湉	18320
湋	18321
湌	18322
湐	18323
湒	18324
湓	18325
湔	18326
湕	18327
湗	18328
湙	18329
湚	18330
湞	18331
湠	18332
湡	18333
湢	18334
湣	18335
湤	18336
湥	18337
湦	18338
湨	18339
湩	18340
湭	18341
湰	18342
湱	18343
湲	18344
湴	18345
湵	18346
湶	18347
湷	18348
湸	18349
湹	18350
湺	18351
湻	18352
湼	18353
湽	18354
溁	18355
溂	18356
溈	18357
溊	18358
溋	18359
溌	18360
溍	18361
溑	18362
溒	18363
溔	18364
溕	18365
溗	18366
溘	18367
溙	18368
溛	18369
溞	18370
溡	18371
溣	18372
溤	18373
溨	18374
溩	18375
溬	18376
溭	18377
溰	18378
溲	18379
溵	18380
溷	18381
溸	18382
溻	18383
溽	18384
溾	18385
溿	18386
滀	18387
滆	18388
滈	18389
滉	18390
滍	18391
滎	18392
滐	18393
滒	18394
滖	18395
滗	18396
滛	18397
滠	18398
滣	18399
滧	18400
滪	18401
滫	18402
滭	18403
滮	18404
滰	18405
漑	18406
漒	18407
漖	18408
漗	18409
漘	18410
漙	18411
漚	18412
漛	18413
漜	18414
漝	18415
漞	18416
漟	18417
漡	18418
漤	18419
漥	18420
漦	18421
漧	18422
漨	18423
漭	18424
漮	18425
漰	18426
漴	18427
漵	18428
漶	18429
漹	18430
漺	18431
漻	18432
漽	18433
潂	18434
潃	18435
潄	18436
潉	18437
潊	18438
潌	18439
潒	18440
潓	18441
潕	18442
潖	18443
潗	18444
潠	18445
潡	18446
潣	18447
潥	18448
潩	18449
潫	18450
潯	18451
潱	18452
潲	18453
潳	18454
潶	18455
潹	18456
潻	18457
潽	18458
潾	18459
潿	18460
澂	18461
澃	18462
澅	18463
澇	18464
澉	18465
澋	18466
澌	18467
澏	18468
澐	18469
澓	18470
澔	18471
澕	18472
澖	18473
澘	18474
澙	18475
澚	18476
澛	18477
澝	18478
澞	18479
澟	18480
澢	18481
澣	18482
澥	18483
澩	18484
澪	18485
澫	18486
澬	18487
澭	18488
澮	18489
澯	18490
澰	18491
澲	18492
澴	18493
澵	18494
澷	18495
澸	18496
澺	18497
澻	18498
澼	18499
澽	18500
澾	18501
澿	18502
濄	18503
濅	18504
濇	18505
濈	18506
濋	18507
濌	18508
濍	18509
濏	18510
濐	18511
濓	18512
濖	18513
濗	18514
濙	18515
濚	18516
濝	18517
濣	18518
濥	18519
濦	18520
瀃	18521
瀄	18522
瀇	18523
瀈	18524
瀊	18525
瀌	18526
瀍	18527
瀎	18528
瀐	18529
瀒	18530
瀓	18531
瀔	18532
瀖	18533
瀗	18534
瀙	18535
瀜	18536
瀠	18537
瀡	18538
瀢	18539
瀣	18540
瀤	18541
瀥	18542
瀦	18543
瀩	18544
瀪	18545
瀫	18546
瀭	18547
瀮	18548
瀯	18549
瀱	18550
瀲	18551
瀴	18552
瀵	18553
瀶	18554
瀷	18555
瀸	18556
瀹	18557
瀺	18558
瀻	18559
瀼	18560
瀽	18561
瀿	18562
灀	18563
灁	18564
灃	18565
灄	18566
灅	18567
灆	18568
灇	18569
灈	18570
灉	18571
灊	18572
灋	18573
灍	18574
灎	18575
灐	18576
灒	18577
灓	18578
灔	18579
灕	18580
灖	18581
灗	18582
灙	18583
灚	18584
灛	18585
灜	18586
灟	18587
灠	18588
灡	18589
灢	18590
灤	18591
灦	18592
灨	18593
灪	18594
灮	18595
灱	18596
灲	18597
灳	18598
灴	18599
灷	18600
灹	18601
灺	18602
灻	18603
炂	18604
炃	18605
炄	18606
炇	18607
炈	18608
炋	18609
炌	18610
炍	18611
炏	18612
炐	18613
炑	18614
炓	18615
炗	18616
炚	18617
炛	18618
炞	18619
炟	18620
炠	18621
炡	18622
炢	18623
炣	18624
炤	18625
炥	18626
炦	18627
炧	18628
炨	18629
炩	18630
炱	18631
炲	18632
炴	18633
炵	18634
炶	18635
炻	18636
炾	18637
炿	18638
烀	18639
烅	18640
烆	18641
烇	18642
烉	18643
烋	18644
烌	18645
烍	18646
烎	18647
烐	18648
烑	18649
烒	18650
烓	18651
烔	18652
烕	18653
烗	18654
烚	18655
烜	18656
焆	18657
焇	18658
焈	18659
焋	18660
焌	18661
焍	18662
焎	18663
焏	18664
焐	18665
焑	18666
焒	18667
焔	18668
焛	18669
焝	18670
焟	18671
焠	18672
焢	18673
焣	18674
焤	18675
焧	18676
焨	18677
焩	18678
焪	18679
焫	18680
焬	18681
焭	18682
焮	18683
焲	18684
焳	18685
焴	18686
焵	18687
焷	18688
焹	18689
焺	18690
焻	18691
焽	18692
焾	18693
焿	18694
煀	18695
煁	18696
煂	18697
煃	18698
煄	18699
煈	18700
煋	18701
煍	18702
煏	18703
煐	18704
煑	18705
煓	18706
煗	18707
煘	18708
煚	18709
煛	18710
煝	18711
煟	18712
煠	18713
煡	18714
煢	18715
煪	18716
煫	18717
煬	18718
煭	18719
煯	18720
煰	18721
煱	18722
煳	18723
煵	18724
煶	18725
煷	18726
煹	18727
煺	18728
煻	18729
煼	18730
煿	18731
熀	18732
熁	18733
熂	18734
熃	18735
熆	18736
熈	18737
熉	18738
熋	18739
熌	18740
熍	18741
熎	18742
熐	18743
熓	18744
熕	18745
熖	18746
熗	18747
熘	18748
熚	18749
熛	18750
熜	18751
熝	18752
熞	18753
熡	18754
熣	18755
熤	18756
熦	18757
熧	18758
熩	18759
熪	18760
熫	18761
熭	18762
熮	18763
熰	18764
熳	18765
熴	18766
熷	18767
熸	18768
熺	18769
熻	18770
熼	18771
熽	18772
燅	18773
燇	18774
燌	18775
燏	18776
燐	18777
燑	18778
燓	18779
燠	18780
燵	18781
燶	18782
燷	18783
燺	18784
燽	18785
燾	18786
爀	18787
爁	18788
爂	18789
爃	18790
爄	18791
爅	18792
爇	18793
爈	18794
爊	18795
爋	18796
爌	18797
爎	18798
爏	18799
爑	18800
爒	18801
爓	18802
爔	18803
爕	18804
爖	18805
爗	18806
爘	18807
爙	18808
爚	18809
爜	18810
爝	18811
爞	18812
爟	18813
爠	18814
爡	18815
爢	18816
爣	18817
爤	18818
爥	18819
爦	18820
爧	18821
爩	18822
爫	18823
爮	18824
爳	18825
爴	18826
爼	18827
牁	18828
牃	18829
牄	18830
牅	18831
牉	18832
牊	18833
牋	18834
牎	18835
牏	18836
牐	18837
牓	18838
牔	18839
牘	18840
牚	18841
牜	18842
牣	18843
牤	18844
牥	18845
牨	18846
牪	18847
牬	18848
牭	18849
牮	18850
牱	18851
牳	18852
牶	18853
牷	18854
牸	18855
牻	18856
牼	18857
牾	18858
牿	18859
犂	18860
犃	18861
犅	18862
犇	18863
犈	18864
犉	18865
犋	18866
犌	18867
犎	18868
犏	18869
犐	18870
犑	18871
犓	18872
犔	18873
犖	18874
犗	18875
犘	18876
犙	18877
犚	18878
犛	18879
犜	18880
犝	18881
犞	18882
犠	18883
犡	18884
犣	18885
犤	18886
犦	18887
犨	18888
犩	18889
犪	18890
犫	18891
犭	18892
犰	18893
犱	18894
犲	18895
犳	18896
犴	18897
犵	18898
犼	18899
犽	18900
犾	18901
犿	18902
狁	18903
狃	18904
狅	18905
狆	18906
狇	18907
狉	18908
狊	18909
狑	18910
狔	18911
狕	18912
狖	18913
狘	18914
狚	18915
狛	18916
狜	18917
狨	18918
狯	18919
狲	18920
狳	18921
狴	18922
狺	18923
狻	18924
猃	18925
猍	18926
猏	18927
猐	18928
猑	18929
猔	18930
猘	18931
猟	18932
猠	18933
猡	18934
猢	18935
猣	18936
猤	18937
猦	18938
猧	18939
猨	18940
猯	18941
猰	18942
猱	18943
猲	18944
猳	18945
猵	18946
猸	18947
猹	18948
猺	18949
猻	18950
猼	18951
猽	18952
獀	18953
獁	18954
獂	18955
獃	18956
獆	18957
獇	18958
獈	18959
獉	18960
獊	18961
獋	18962
獌	18963
獍	18964
獑	18965
獓	18966
獔	18967
獕	18968
獘	18969
獙	18970
獚	18971
獛	18972
獝	18973
獞	18974
獟	18975
獢	18976
獤	18977
獥	18978
獧	18979
獩	18980
獪	18981
獫	18982
獯	18983
玎	18984
玔	18985
玗	18986
玘	18987
玙	18988
玚	18989
玜	18990
玝	18991
玞	18992
玡	18993
玢	18994
玣	18995
玤	18996
玧	18997
玨	18998
玪	18999
玬	19000
玭	19001
玱	19002
玴	19003
玵	19004
玶	19005
玸	19006
玹	19007
玼	19008
玽	19009
玾	19010
玿	19011
珁	19012
珃	19013
珄	19014
珇	19015
珋	19016
珌	19017
珎	19018
珒	19019
珓	19020
珔	19021
珕	19022
珖	19023
珗	19024
珘	19025
珚	19026
珛	19027
珜	19028
珝	19029
珟	19030
珡	19031
珤	19032
珦	19033
珧	19034
珨	19035
珫	19036
珬	19037
珯	19038
珱	19039
珳	19040
珴	19041
珶	19042
珷	19043
珸	19044
琜	19045
琝	19046
琞	19047
琠	19048
琡	19049
琣	19050
琤	19051
琧	19052
琩	19053
琫	19054
琭	19055
琱	19056
琷	19057
琸	19058
琹	19059
琻	19060
琽	19061
琾	19062
琿	19063
瑂	19064
瑃	19065
瑅	19066
瑆	19067
瑇	19068
瑈	19069
瑉	19070
瑊	19071
瑌	19072
瑍	19073
瑎	19074
瑏	19075
瑐	19076
瑑	19077
瑒	19078
瑓	19079
瑔	19080
瑖	19081
瑘	19082
瑝	19083
瑡	19084
瑢	19085
瑥	19086
瑦	19087
瑧	19088
瑨	19089
瑫	19090
瑬	19091
瑮	19092
瑳	19093
瑴	19094
瑵	19095
瑹	19096
瑺	19097
瑻	19098
璡	19099
璣	19100
璤	19101
璥	19102
璦	19103
璪	19104
璫	19105
璬	19106
璭	19107
璮	19108
璯	19109
璱	19110
璲	19111
璳	19112
璴	19113
璵	19114
璶	19115
璷	19116
璸	19117
璹	19118
璺	19119
璻	19120
璼	19121
璾	19122
瓀	19123
瓁	19124
瓂	19125
瓃	19126
瓄	19127
瓅	19128
瓆	19129
瓇	19130
瓉	19131
瓋	19132
瓌	19133
瓍	19134
瓎	19135
瓐	19136
瓑	19137
瓔	19138
瓖	19139
瓙	19140
瓚	19141
瓝	19142
瓞	19143
瓡	19144
瓥	19145
瓧	19146
瓩	19147
瓪	19148
瓫	19149
瓬	19150
瓭	19151
瓰	19152
瓱	19153
瓲	19154
瓳	19155
甍	19156
甏	19157
甓	19158
甗	19159
甛	19160
甝	19161
甠	19162
甡	19163
甤	19164
甧	19165
甪	19166
甮	19167
甴	19168
甶	19169
甹	19170
甼	19171
甽	19172
甿	19173
畁	19174
畂	19175
畃	19176
畄	19177
畆	19178
畇	19179
畉	19180
畊	19181
畍	19182
畎	19183
畐	19184
畒	19185
畓	19186
畕	19187
畖	19188
畗	19189
畘	19190
畚	19191
畛	19192
畞	19193
畟	19194
畡	19195
畤	19196
畧	19197
畩	19198
畭	19199
畮	19200
畯	19201
畱	19202
畵	19203
畷	19204
畺	19205
畻	19206
畼	19207
畽	19208
畾	19209
疀	19210
疁	19211
疂	19212
疄	19213
疅	19214
疈	19215
疋	19216
疒	19217
疰	19218
痃	19219
痄	19220
痆	19221
痌	19222
痎	19223
痏	19224
痐	19225
痓	19226
痗	19227
痚	19228
痜	19229
痝	19230
痟	19231
痡	19232
痥	19233
痦	19234
痩	19235
痬	19236
痮	19237
痯	19238
痲	19239
痳	19240
痵	19241
痶	19242
痷	19243
痸	19244
痻	19245
痽	19246
痾	19247
瘃	19248
瘄	19249
瘅	19250
瘆	19251
瘇	19252
瘉	19253
瘊	19254
瘌	19255
瘎	19256
瘏	19257
瘐	19258
瘑	19259
瘒	19260
瘔	19261
瘖	19262
瘚	19263
瘛	19264
瘜	19265
瘝	19266
瘞	19267
瘣	19268
瘥	19269
瘨	19270
瘬	19271
瘭	19272
瘮	19273
瘯	19274
瘱	19275
瘲	19276
瘳	19277
瘵	19278
瘶	19279
瘷	19280
瘹	19281
瘻	19282
瘼	19283
瘽	19284
癀	19285
癁	19286
癃	19287
癄	19288
癅	19289
癍	19290
癧	19291
癨	19292
癩	19293
癪	19294
癭	19295
癯	19296
癰	19297
癳	19298
癴	19299
癵	19300
癶	19301
癷	19302
癹	19303
癿	19304
皀	19305
皁	19306
皃	19307
皅	19308
皉	19309
皊	19310
皌	19311
皍	19312
皏	19313
皐	19314
皒	19315
皔	19316
皕	19317
皗	19318
皘	19319
皝	19320
皞	19321
皟	19322
皠	19323
皡	19324
皢	19325
皣	19326
皤	19327
皥	19328
皦	19329
皧	19330
皨	19331
皩	19332
皫	19333
皬	19334
皭	19335
皯	19336
皲	19337
皳	19338
皵	19339
皶	19340
皷	19341
皸	19342
皹	19343
皻	19344
皼	19345
皽	19346
皾	19347
盀	19348
盁	19349
盄	19350
盵	19351
盶	19352
盷	19353
盺	19354
盻	19355
盽	19356
盿	19357
眀	19358
眂	19359
眃	19360
眄	19361
眅	19362
眆	19363
眊	19364
眍	19365
眎	19366
眏	19367
眐	19368
眑	19369
眒	19370
眓	19371
眔	19372
眕	19373
眖	19374
眗	19375
眘	19376
眚	19377
眛	19378
眝	19379
眡	19380
眢	19381
眣	19382
眤	19383
眥	19384
眧	19385
眫	19386
眬	19387
眭	19388
眮	19389
眰	19390
眱	19391
眲	19392
眳	19393
眵	19394
眹	19395
眻	19396
眽	19397
眿	19398
睂	19399
睃	19400
睅	19401
睆	19402
睈	19403
睉	19404
睊	19405
睋	19406
睌	19407
睍	19408
睎	19409
睒	19410
睓	19411
睕	19412
睖	19413
睗	19414
睘	19415
睙	19416
睚	19417
睝	19418
瞀	19419
瞈	19420
瞉	19421
瞊	19422
瞍	19423
瞏	19424
瞐	19425
瞔	19426
瞕	19427
瞖	19428
瞗	19429
瞘	19430
瞙	19431
瞚	19432
瞛	19433
瞜	19434
瞝	19435
瞡	19436
瞢	19437
瞣	19438
瞤	19439
瞦	19440
瞨	19441
瞫	19442
瞮	19443
瞯	19444
瞱	19445
瞲	19446
瞴	19447
瞵	19448
瞶	19449
瞷	19450
瞸	19451
瞹	19452
瞺	19453
瞾	19454
矀	19455
矁	19456
矂	19457
矄	19458
矅	19459
矈	19460
矉	19461
矊	19462
矋	19463
矌	19464
矏	19465
矐	19466
矑	19467
矔	19468
矕	19469
矖	19470
矘	19471
矙	19472
矞	19473
矟	19474
矠	19475
矡	19476
矤	19477
矦	19478
矧	19479
矬	19480
砉	19481
砑	19482
砘	19483
砙	19484
砛	19485
砞	19486
砟	19487
砡	19488
砤	19489
砨	19490
砩	19491
砪	19492
砫	19493
砮	19494
砯	19495
砱	19496
砳	19497
砵	19498
砶	19499
砹	19500
砽	19501
砿	19502
硁	19503
硂	19504
硃	19505
硄	19506
硆	19507
硇	19508
硈	19509
硉	19510
硊	19511
硋	19512
硌	19513
硎	19514
硏	19515
硑	19516
硓	19517
硔	19518
硗	19519
硘	19520
硚	19521
硛	19522
硟	19523
硠	19524
硡	19525
硢	19526
硣	19527
硤	19528
硧	19529
硨	19530
硩	19531
硪	19532
硭	19533
硰	19534
硱	19535
硲	19536
硳	19537
硴	19538
硵	19539
硷	19540
硸	19541
硹	19542
硺	19543
硻	19544
硾	19545
硿	19546
碀	19547
碃	19548
碄	19549
碜	19550
碡	19551
碥	19552
碵	19553
碶	19554
碷	19555
碸	19556
碹	19557
碽	19558
碿	19559
磀	19560
磂	19561
磃	19562
磄	19563
磆	19564
磇	19565
磉	19566
磌	19567
磍	19568
磎	19569
磏	19570
磑	19571
磒	19572
磓	19573
磖	19574
磗	19575
磘	19576
磙	19577
磛	19578
磜	19579
磝	19580
磞	19581
磟	19582
磠	19583
磢	19584
磣	19585
磦	19586
磧	19587
磪	19588
磫	19589
磭	19590
磮	19591
磰	19592
磱	19593
磳	19594
磵	19595
磶	19596
磸	19597
磹	19598
磼	19599
磽	19600
磿	19601
礀	19602
礂	19603
礃	19604
礅	19605
礆	19606
礇	19607
礈	19608
礌	19609
礍	19610
礓	19611
礞	19612
礤	19613
礬	19614
礭	19615
礯	19616
礰	19617
礱	19618
礲	19619
礳	19620
礵	19621
礶	19622
礷	19623
礸	19624
礹	19625
礻	19626
礿	19627
祃	19628
祄	19629
祅	19630
祆	19631
祊	19632
祋	19633
祌	19634
祍	19635
祏	19636
祑	19637
祒	19638
祓	19639
祔	19640
祘	19641
祙	19642
祡	19643
祣	19644
祤	19645
祦	19646
祧	19647
祩	19648
祪	19649
祫	19650
祬	19651
祮	19652
祰	19653
祲	19654
祳	19655
祴	19656
祵	19657
祶	19658
祹	19659
祻	19660
祼	19661
祽	19662
祾	19663
禂	19664
禃	19665
禇	19666
禈	19667
禉	19668
禋	19669
禌	19670
禐	19671
禑	19672
禒	19673
禚	19674
禰	19675
禲	19676
禴	19677
禵	19678
禶	19679
禷	19680
禸	19681
禼	19682
秂	19683
秄	19684
秅	19685
秇	19686
秈	19687
秊	19688
秌	19689
秎	19690
秏	19691
秐	19692
秓	19693
秔	19694
秖	19695
秗	19696
秙	19697
秚	19698
秛	19699
秜	19700
秝	19701
秞	19702
秠	19703
秡	19704
秢	19705
秥	19706
秨	19707
秪	19708
秬	19709
秮	19710
秱	19711
秲	19712
秳	19713
秵	19714
秶	19715
秷	19716
秹	19717
秺	19718
秼	19719
稁	19720
稂	19721
稆	19722
稇	19723
稈	19724
稉	19725
稊	19726
稌	19727
稏	19728
稐	19729
稑	19730
稒	19731
稓	19732
稕	19733
稖	19734
稘	19735
稙	19736
稛	19737
稝	19738
穃	19739
穄	19740
穅	19741
穇	19742
穈	19743
穉	19744
穊	19745
穋	19746
穏	19747
穐	19748
穒	19749
穓	19750
穔	19751
穕	19752
穖	19753
穘	19754
穙	19755
穚	19756
穛	19757
穜	19758
穝	19759
穞	19760
穟	19761
穠	19762
穡	19763
穣	19764
穤	19765
穦	19766
穧	19767
穬	19768
穮	19769
穯	19770
穱	19771
穲	19772
穵	19773
穸	19774
穼	19775
穽	19776
穾	19777
窀	19778
窂	19779
窆	19780
窇	19781
窉	19782
窊	19783
窎	19784
窏	19785
窔	19786
窙	19787
窚	19788
窛	19789
窞	19790
窡	19791
窢	19792
窣	19793
窬	19794
窭	19795
窳	19796
竆	19797
竈	19798
竉	19799
竌	19800
竍	19801
竎	19802
竏	19803
竐	19804
竒	19805
竓	19806
竔	19807
竕	19808
竗	19809
竘	19810
竚	19811
竛	19812
竝	19813
竡	19814
竢	19815
竤	19816
竨	19817
竩	19818
竪	19819
竫	19820
竬	19821
竮	19822
竰	19823
竱	19824
竲	19825
竳	19826
竴	19827
竵	19828
竷	19829
竸	19830
竻	19831
竼	19832
竾	19833
笀	19834
笁	19835
笂	19836
笇	19837
笉	19838
笊	19839
笌	19840
笎	19841
笐	19842
笕	19843
笖	19844
笗	19845
笘	19846
笜	19847
笝	19848
笟	19849
笡	19850
笢	19851
笣	19852
笤	19853
笧	19854
笩	19855
笪	19856
笫	19857
笭	19858
笮	19859
笯	19860
笱	19861
笸	19862
笾	19863
筅	19864
筇	19865
筘	19866
筟	19867
筡	19868
筢	19869
筣	19870
筥	19871
筦	19872
筧	19873
筨	19874
筩	19875
筪	19876
筫	19877
筬	19878
筭	19879
筯	19880
筰	19881
筳	19882
筴	19883
筶	19884
筸	19885
筺	19886
筻	19887
筼	19888
筽	19889
筿	19890
箁	19891
箂	19892
箃	19893
箄	19894
箅	19895
箆	19896
箈	19897
箉	19898
箊	19899
箌	19900
箎	19901
箑	19902
箖	19903
箙	19904
箚	19905
箛	19906
箟	19907
箠	19908
箢	19909
箣	19910
箤	19911
箥	19912
箦	19913
箪	19914
箮	19915
箯	19916
箰	19917
箲	19918
箳	19919
箶	19920
箷	19921
箹	19922
箺	19923
箻	19924
箼	19925
箽	19926
箿	19927
篂	19928
篃	19929
篅	19930
篚	19931
篥	19932
篭	19933
篰	19934
篲	19935
篳	19936
篴	19937
篵	19938
篶	19939
篸	19940
篹	19941
篺	19942
篻	19943
篼	19944
篽	19945
篿	19946
簀	19947
簁	19948
簂	19949
簃	19950
簄	19951
簅	19952
簆	19953
簈	19954
簉	19955
簊	19956
簎	19957
簏	19958
簐	19959
簑	19960
簒	19961
簓	19962
簔	19963
簕	19964
簖	19965
簗	19966
簘	19967
簙	19968
簚	19969
簛	19970
簜	19971
簝	19972
簞	19973
簠	19974
簢	19975
簣	19976
簥	19977
簩	19978
簬	19979
簭	19980
簮	19981
簯	19982
簰	19983
簱	19984
簲	19985
簳	19986
簴	19987
簵	19988
簶	19989
簺	19990
簻	19991
簼	19992
籂	19993
籡	19994
籣	19995
籥	19996
籦	19997
籧	19998
籨	19999
籩	20000
籪	20001
籫	20002
籭	20003
籯	20004
籰	20005
籱	20006
籵	20007
籶	20008
籷	20009
籸	20010
籹	20011
籺	20012
籾	20013
籿	20014
粀	20015
粁	20016
粂	20017
粃	20018
粅	20019
粆	20020
粇	20021
粈	20022
粊	20023
粋	20024
粌	20025
粍	20026
粎	20027
粏	20028
粐	20029
粓	20030
粔	20031
粖	20032
粙	20033
粚	20034
粛	20035
粝	20036
粞	20037
粠	20038
粡	20039
粢	20040
粦	20041
粨	20042
粩	20043
粫	20044
粭	20045
粯	20046
粰	20047
粴	20048
粶	20049
粷	20050
粸	20051
粺	20052
粻	20053
糁	20054
糇	20055
糈	20056
糌	20057
糨	20058
糩	20059
糪	20060
糫	20061
糭	20062
糮	20063
糱	20064
糲	20065
糴	20066
糵	20067
糶	20068
糷	20069
糹	20070
糺	20071
糼	20072
糽	20073
糿	20074
紁	20075
紃	20076
紆	20077
紇	20078
紈	20079
紌	20080
紎	20081
紏	20082
紑	20083
紒	20084
紞	20085
紣	20086
紤	20087
紥	20088
紦	20089
紩	20090
紪	20091
紬	20092
紭	20093
紱	20094
紲	20095
紷	20096
絒	20097
絖	20098
絗	20099
絘	20100
絙	20101
絚	20102
絛	20103
絜	20104
絝	20105
絟	20106
絠	20107
絣	20108
絤	20109
絥	20110
絧	20111
絩	20112
絪	20113
絫	20114
絬	20115
絯	20116
絴	20117
絷	20118
絸	20119
絺	20120
絼	20121
絽	20122
絾	20123
絿	20124
綀	20125
綂	20126
綃	20127
綄	20128
綇	20129
綈	20130
綉	20131
綊	20132
綋	20133
綌	20134
綍	20135
綐	20136
綒	20137
綔	20138
綕	20139
綖	20140
綗	20141
綘	20142
綮	20143
綶	20144
綷	20145
綹	20146
綼	20147
緀	20148
緁	20149
緂	20150
緃	20151
緄	20152
緅	20153
緆	20154
緇	20155
緈	20156
緉	20157
緌	20158
緍	20159
緎	20160
緐	20161
緓	20162
緔	20163
緕	20164
緖	20165
緗	20166
緙	20167
緛	20168
緟	20169
緡	20170
緥	20171
緦	20172
緧	20173
緫	20174
緭	20175
緮	20176
緱	20177
緲	20178
緳	20179
緵	20180
緶	20181
緷	20182
緸	20183
緺	20184
縖	20185
縘	20186
縜	20187
縞	20188
縟	20189
縠	20190
縡	20191
縢	20192
縤	20193
縥	20194
縧	20195
縨	20196
縩	20197
縪	20198
縬	20199
縭	20200
縯	20201
縰	20202
縲	20203
縵	20204
縶	20205
縸	20206
縹	20207
縺	20208
縼	20209
繀	20210
繂	20211
繅	20212
繉	20213
繊	20214
繍	20215
繎	20216
繏	20217
繐	20218
繑	20219
繒	20220
繓	20221
繖	20222
繗	20223
繘	20224
繜	20225
繝	20226
繺	20227
繻	20228
繾	20229
繿	20230
纀	20231
纁	20232
纃	20233
纄	20234
纅	20235
纆	20236
纈	20237
纉	20238
纊	20239
纋	20240
纎	20241
纐	20242
纑	20243
纒	20244
纕	20245
纗	20246
纘	20247
纙	20248
纛	20249
纝	20250
纞	20251
纩	20252
纴	20253
纻	20254
纼	20255
绁	20256
绋	20257
绐	20258
绖	20259
绗	20260
绠	20261
绤	20262
绨	20263
绬	20264
绱	20265
绲	20266
绹	20267
缃	20268
缊	20269
缋	20270
缌	20271
缏	20272
缐	20273
缒	20274
缞	20275
缡	20276
缧	20277
缲	20278
缳	20279
缷	20280
缹	20281
缻	20282
缼	20283
缾	20284
缿	20285
罀	20286
罁	20287
罃	20288
罆	20289
罇	20290
罉	20291
罊	20292
罋	20293
罒	20294
罓	20295
罖	20296
罟	20297
罨	20298
罱	20299
罾	20300
羀	20301
羂	20302
羃	20303
羄	20304
羆	20305
羇	20306
羉	20307
羋	20308
羍	20309
羏	20310
羐	20311
羑	20312
羒	20313
羓	20314
羕	20315
羖	20316
羗	20317
羘	20318
羙	20319
羛	20320
羜	20321
羝	20322
羠	20323
羢	20324
羦	20325
羪	20326
羫	20327
羬	20328
羭	20329
羮	20330
羱	20331
羳	20332
羴	20333
羵	20334
羶	20335
羷	20336
羺	20337
羻	20338
羼	20339
羾	20340
翀	20341
翂	20342
翃	20343
翄	20344
翇	20345
翉	20346
翋	20347
翐	20348
翑	20349
翓	20350
翖	20351
翗	20352
翙	20353
翜	20354
翝	20355
翞	20356
翣	20357
翤	20358
耓	20359
耔	20360
耖	20361
耚	20362
耝	20363
耞	20364
耟	20365
耠	20366
耡	20367
耢	20368
耣	20369
耤	20370
耥	20371
耧	20372
耩	20373
耪	20374
耬	20375
耭	20376
耮	20377
耯	20378
耰	20379
耱	20380
耲	20381
耴	20382
耵	20383
耹	20384
耺	20385
耼	20386
耾	20387
聀	20388
聁	20389
聄	20390
聅	20391
聇	20392
聈	20393
聉	20394
聍	20395
聎	20396
聏	20397
聐	20398
聑	20399
聕	20400
聗	20401
聙	20402
聛	20403
聝	20404
聟	20405
聠	20406
聡	20407
聢	20408
聣	20409
聤	20410
聥	20411
聦	20412
聧	20413
聨	20414
聫	20415
聬	20416
聭	20417
聮	20418
聱	20419
聵	20420
聸	20421
聹	20422
聺	20423
肀	20424
肜	20425
肫	20426
肭	20427
肷	20428
肹	20429
肻	20430
胂	20431
胅	20432
胈	20433
胉	20434
胊	20435
胋	20436
胏	20437
胐	20438
胑	20439
胒	20440
胓	20441
胔	20442
胕	20443
胗	20444
胘	20445
胙	20446
胟	20447
胠	20448
胢	20449
胣	20450
胦	20451
胩	20452
胬	20453
胮	20454
胲	20455
胵	20456
胷	20457
胹	20458
胻	20459
胾	20460
胿	20461
脀	20462
脁	20463
脃	20464
脄	20465
脋	20466
脌	20467
脎	20468
脒	20469
脔	20470
脗	20471
脙	20472
脜	20473
脝	20474
脞	20475
脠	20476
脡	20477
脢	20478
脤	20479
脥	20480
脧	20481
脬	20482
脭	20483
脰	20484
脴	20485
脵	20486
脶	20487
脷	20488
脻	20489
脼	20490
脽	20491
脿	20492
腀	20493
腙	20494
腚	20495
腬	20496
腯	20497
腲	20498
腵	20499
腶	20500
腷	20501
腽	20502
膂	20503
膃	20504
膄	20505
膅	20506
膆	20507
膇	20508
膉	20509
膋	20510
膌	20511
膍	20512
膎	20513
膐	20514
膒	20515
膓	20516
膔	20517
膕	20518
膖	20519
膗	20520
膙	20521
膞	20522
膟	20523
膡	20524
膢	20525
膣	20526
膤	20527
膥	20528
膧	20529
膪	20530
膫	20531
膬	20532
膮	20533
膯	20534
膰	20535
膱	20536
膲	20537
膵	20538
膷	20539
膸	20540
膹	20541
膼	20542
臁	20543
臄	20544
臅	20545
臇	20546
臈	20547
臋	20548
臌	20549
臎	20550
臏	20551
臐	20552
臔	20553
臶	20554
臹	20555
臽	20556
臿	20557
舁	20558
舃	20559
舄	20560
舋	20561
舏	20562
舑	20563
舓	20564
舕	20565
舙	20566
舚	20567
舝	20568
舠	20569
舡	20570
舢	20571
舣	20572
舤	20573
舥	20574
舦	20575
舧	20576
舨	20577
舩	20578
舭	20579
舮	20580
舯	20581
舲	20582
舳	20583
舴	20584
舻	20585
舼	20586
舽	20587
舿	20588
艀	20589
艁	20590
艂	20591
艃	20592
艄	20593
艅	20594
艆	20595
艊	20596
艌	20597
艍	20598
艎	20599
艐	20600
艑	20601
艒	20602
艓	20603
艔	20604
艕	20605
艖	20606
艗	20607
艚	20608
艛	20609
艜	20610
艝	20611
艟	20612
艠	20613
艡	20614
艤	20615
艥	20616
艨	20617
艩	20618
艴	20619
艽	20620
艿	20621
芄	20622
芏	20623
芑	20624
芘	20625
芟	20626
芠	20627
芢	20628
芣	20629
芤	20630
芰	20631
芲	20632
芴	20633
芵	20634
芶	20635
芺	20636
芼	20637
芿	20638
苀	20639
苂	20640
苃	20641
苅	20642
苆	20643
苈	20644
苉	20645
苊	20646
苐	20647
苖	20648
苘	20649
苙	20650
苚	20651
苝	20652
苠	20653
苢	20654
苤	20655
苧	20656
苨	20657
苩	20658
苪	20659
苬	20660
苭	20661
苮	20662
苰	20663
苲	20664
苳	20665
苵	20666
苶	20667
苸	20668
苺	20669
苽	20670
苿	20671
茇	20672
茈	20673
茊	20674
茋	20675
茍	20676
茑	20677
茓	20678
茘	20679
茙	20680
茚	20681
茛	20682
茝	20683
茞	20684
茟	20685
茠	20686
茡	20687
茢	20688
茣	20689
茤	20690
茦	20691
茩	20692
茪	20693
茰	20694
茳	20695
茺	20696
茻	20697
茽	20698
茾	20699
荛	20700
荜	20701
荩	20702
荬	20703
荭	20704
荮	20705
荾	20706
荿	20707
莀	20708
莁	20709
莂	20710
莃	20711
莄	20712
莇	20713
莈	20714
莋	20715
莌	20716
莍	20717
莏	20718
莐	20719
莑	20720
莔	20721
莕	20722
莗	20723
莙	20724
莚	20725
莛	20726
莝	20727
莟	20728
莡	20729
莣	20730
莤	20731
莥	20732
莦	20733
莩	20734
莭	20735
莮	20736
莯	20737
莰	20738
莶	20739
莸	20740
莻	20741
莾	20742
菂	20743
菃	20744
菄	20745
菉	20746
菋	20747
菎	20748
菐	20749
菑	20750
菒	20751
菔	20752
菕	20753
菗	20754
菙	20755
菚	20756
菛	20757
菝	20758
菞	20759
菢	20760
菣	20761
菤	20762
菥	20763
菦	20764
菧	20765
菮	20766
菹	20767
萆	20768
萏	20769
萑	20770
萚	20771
萛	20772
萞	20773
萟	20774
萠	20775
萢	20776
萣	20777
萪	20778
萫	20779
萭	20780
萮	20781
萯	20782
萰	20783
萲	20784
萳	20785
萴	20786
萶	20787
萷	20788
萹	20789
萺	20790
萻	20791
萾	20792
萿	20793
葀	20794
葁	20795
葂	20796
葃	20797
葄	20798
葅	20799
葇	20800
葈	20801
葊	20802
葋	20803
葌	20804
葍	20805
葎	20806
葏	20807
葐	20808
葑	20809
葒	20810
葓	20811
葔	20812
葕	20813
葘	20814
葙	20815
葜	20816
葞	20817
葟	20818
葠	20819
葢	20820
葤	20821
葧	20822
葨	20823
葪	20824
葮	20825
葲	20826
葴	20827
葸	20828
葹	20829
葻	20830
葼	20831
葽	20832
蒇	20833
蒈	20834
蒉	20835
蒎	20836
蒗	20837
蒤	20838
蒥	20839
蒦	20840
蒧	20841
蒩	20842
蒪	20843
蒫	20844
蒬	20845
蒭	20846
蒮	20847
蒰	20848
蒱	20849
蒳	20850
蒵	20851
蒶	20852
蒷	20853
蒾	20854
蓀	20855
蓂	20856
蓃	20857
蓅	20858
蓈	20859
蓌	20860
蓎	20861
蓏	20862
蓐	20863
蓒	20864
蓕	20865
蓗	20866
蓘	20867
蓙	20868
蓚	20869
蓛	20870
蓜	20871
蓞	20872
蓠	20873
蓡	20874
蓢	20875
蓤	20876
蓨	20877
蓩	20878
蓪	20879
蓫	20880
蓭	20881
蓯	20882
蓰	20883
蓱	20884
蓳	20885
蓴	20886
蓵	20887
蓶	20888
蓷	20889
蓸	20890
蓹	20891
蓺	20892
蓻	20893
蓽	20894
蓾	20895
蔀	20896
蔁	20897
蔂	20898
蔌	20899
蔟	20900
蔦	20901
蔧	20902
蔨	20903
蔩	20904
蔪	20905
蔮	20906
蔯	20907
蔰	20908
蔱	20909
蔲	20910
蔳	20911
蔴	20912
蔶	20913
蔹	20914
蔾	20915
蔿	20916
蕀	20917
蕂	20918
蕄	20919
蕅	20920
蕆	20921
蕇	20922
蕋	20923
蕌	20924
蕍	20925
蕏	20926
蕐	20927
蕑	20928
蕒	20929
蕔	20930
蕕	20931
蕗	20932
蕘	20933
蕚	20934
蕛	20935
蕜	20936
蕞	20937
蕠	20938
蕢	20939
蕣	20940
蕥	20941
蕦	20942
蕧	20943
蕫	20944
蕬	20945
蕮	20946
蕯	20947
蕱	20948
蕳	20949
蕵	20950
蕶	20951
蕷	20952
蕸	20953
蕹	20954
蕺	20955
蕼	20956
蕽	20957
薀	20958
薁	20959
薂	20960
薣	20961
薧	20962
薫	20963
薭	20964
薱	20965
薲	20966
薳	20967
薴	20968
薵	20969
薷	20970
薸	20971
薺	20972
薻	20973
薼	20974
薽	20975
薿	20976
藀	20977
藂	20978
藃	20979
藄	20980
藅	20981
藆	20982
藇	20983
藈	20984
藊	20985
藋	20986
藌	20987
藎	20988
藑	20989
藒	20990
藔	20991
藖	20992
藗	20993
藘	20994
藙	20995
藚	20996
藛	20997
藞	20998
藟	20999
藠	21000
藢	21001
藣	21002
藦	21003
藧	21004
藨	21005
藪	21006
藫	21007
藬	21008
藭	21009
藮	21010
藯	21011
藰	21012
藶	21013
藷	21014
蘙	21015
蘛	21016
蘜	21017
蘝	21018
蘞	21019
蘟	21020
蘠	21021
蘡	21022
蘢	21023
蘣	21024
蘤	21025
蘥	21026
蘦	21027
蘨	21028
蘩	21029
蘪	21030
蘫	21031
蘬	21032
蘮	21033
蘯	21034
蘰	21035
蘱	21036
蘲	21037
蘳	21038
蘴	21039
蘵	21040
蘶	21041
蘷	21042
蘹	21043
蘺	21044
蘻	21045
蘽	21046
蘾	21047
虀	21048
虁	21049
虂	21050
虃	21051
虄	21052
虅	21053
虆	21054
虇	21055
虈	21056
虉	21057
虊	21058
虋	21059
虌	21060
虍	21061
虓	21062
虖	21063
虗	21064
虘	21065
虙	21066
虝	21067
虠	21068
虡	21069
虣	21070
虤	21071
虥	21072
虦	21073
虨	21074
虩	21075
虪	21076
虮	21077
虼	21078
虿	21079
蚋	21080
蚍	21081
蚚	21082
蚛	21083
蚞	21084
蚟	21085
蚠	21086
蚡	21087
蚢	21088
蚥	21089
蚦	21090
蚨	21091
蚫	21092
蚭	21093
蚮	21094
蚰	21095
蚲	21096
蚷	21097
蚸	21098
蚹	21099
蚺	21100
蚻	21101
蚼	21102
蚽	21103
蚾	21104
蚿	21105
蛁	21106
蛂	21107
蛃	21108
蛅	21109
蛈	21110
蛌	21111
蛍	21112
蛑	21113
蛒	21114
蛓	21115
蛗	21116
蛘	21117
蛚	21118
蛜	21119
蛝	21120
蛞	21121
蛠	21122
蛢	21123
蛥	21124
蛦	21125
蛧	21126
蛨	21127
蛩	21128
蛪	21129
蛫	21130
蛬	21131
蛯	21132
蛱	21133
蛲	21134
蛴	21135
蛵	21136
蛶	21137
蛷	21138
蛸	21139
蛺	21140
蛼	21141
蛽	21142
蛿	21143
蜁	21144
蜄	21145
蜅	21146
蜋	21147
蜌	21148
蜎	21149
蜏	21150
蜐	21151
蜑	21152
蜔	21153
蜖	21154
蜙	21155
蜞	21156
蜣	21157
蜩	21158
蜮	21159
蜾	21160
蝄	21161
蝅	21162
蝆	21163
蝋	21164
蝍	21165
蝏	21166
蝐	21167
蝑	21168
蝒	21169
蝓	21170
蝔	21171
蝖	21172
蝘	21173
蝚	21174
蝛	21175
蝜	21176
蝝	21177
蝞	21178
蝡	21179
蝢	21180
蝤	21181
蝥	21182
蝧	21183
蝩	21184
蝪	21185
蝫	21186
蝬	21187
蝭	21188
蝯	21189
蝱	21190
蝲	21191
蝳	21192
蝵	21193
蝷	21194
蝻	21195
蝾	21196
蝿	21197
螀	21198
螁	21199
螄	21200
螆	21201
螉	21202
螊	21203
螋	21204
螌	21205
螏	21206
螐	21207
螑	21208
螒	21209
螓	21210
螖	21211
螗	21212
螙	21213
螚	21214
螛	21215
螜	21216
螝	21217
螠	21218
螤	21219
螥	21220
螬	21221
螵	21222
螽	21223
蟊	21224
蟍	21225
蟏	21226
蟐	21227
蟓	21228
蟔	21229
蟕	21230
蟖	21231
蟗	21232
蟘	21233
蟙	21234
蟚	21235
蟛	21236
蟜	21237
蟝	21238
蟟	21239
蟡	21240
蟢	21241
蟣	21242
蟤	21243
蟥	21244
蟦	21245
蟧	21246
蟨	21247
蟩	21248
蟪	21249
蟭	21250
蟮	21251
蟯	21252
蟰	21253
蟱	21254
蟳	21255
蟴	21256
蟵	21257
蟶	21258
蟷	21259
蟸	21260
蟼	21261
蟽	21262
蟿	21263
蠀	21264
蠁	21265
蠂	21266
蠃	21267
蠄	21268
蠆	21269
蠇	21270
蠈	21271
蠉	21272
蠊	21273
蠋	21274
蠌	21275
蠎	21276
蠏	21277
蠐	21278
蠑	21279
蠒	21280
蠓	21281
蠖	21282
蠗	21283
蠘	21284
蠙	21285
蠚	21286
蠜	21287
蠝	21288
蠞	21289
蠠	21290
蠤	21291
蠼	21292
衃	21293
衈	21294
衉	21295
衊	21296
衋	21297
衎	21298
衏	21299
衐	21300
衑	21301
衒	21302
衕	21303
衖	21304
衘	21305
衚	21306
衜	21307
衟	21308
衠	21309
衤	21310
衦	21311
衧	21312
衪	21313
衭	21314
衯	21315
衱	21316
衳	21317
衴	21318
衵	21319
衶	21320
衸	21321
衺	21322
衻	21323
衼	21324
袀	21325
袃	21326
袇	21327
袉	21328
袊	21329
袎	21330
袏	21331
袐	21332
袑	21333
袕	21334
袗	21335
袘	21336
袙	21337
袛	21338
袝	21339
袟	21340
袠	21341
袡	21342
袣	21343
袥	21344
袦	21345
袧	21346
袨	21347
袩	21348
袬	21349
袷	21350
袼	21351
裉	21352
裎	21353
裑	21354
裖	21355
裗	21356
裚	21357
裛	21358
裞	21359
裠	21360
裢	21361
裣	21362
裥	21363
裦	21364
裧	21365
裩	21366
裪	21367
裫	21368
裬	21369
裭	21370
裮	21371
裯	21372
裰	21373
裲	21374
裵	21375
裶	21376
裷	21377
裺	21378
裻	21379
裼	21380
裿	21381
褀	21382
褁	21383
褃	21384
褄	21385
褅	21386
褈	21387
褉	21388
褊	21389
褋	21390
褍	21391
褎	21392
褏	21393
褕	21394
褖	21395
褗	21396
褙	21397
褜	21398
褝	21399
褞	21400
褟	21401
褠	21402
褡	21403
褢	21404
褣	21405
褤	21406
褦	21407
褧	21408
褩	21409
褬	21410
褭	21411
褮	21412
褯	21413
褰	21414
褱	21415
褳	21416
褵	21417
褷	21418
襕	21419
襖	21420
襗	21421
襘	21422
襙	21423
襚	21424
襛	21425
襜	21426
襝	21427
襡	21428
襢	21429
襣	21430
襤	21431
襥	21432
襧	21433
襨	21434
襩	21435
襫	21436
襭	21437
襮	21438
襰	21439
襱	21440
襳	21441
襴	21442
襵	21443
襶	21444
襷	21445
襹	21446
襺	21447
襻	21448
襼	21449
襽	21450
襾	21451
覀	21452
覄	21453
覅	21454
覉	21455
覊	21456
覍	21457
覑	21458
覒	21459
覕	21460
覗	21461
覘	21462
覙	21463
覛	21464
覝	21465
覞	21466
覟	21467
覠	21468
覡	21469
覢	21470
覾	21471
覿	21472
觃	21473
觋	21474
觌	21475
觍	21476
觏	21477
觓	21478
觔	21479
觖	21480
觗	21481
觘	21482
觙	21483
觛	21484
觜	21485
觝	21486
觟	21487
觠	21488
觡	21489
觢	21490
觤	21491
觨	21492
觩	21493
觪	21494
觫	21495
觬	21496
觮	21497
觯	21498
觰	21499
觱	21500
觲	21501
觳	21502
觴	21503
觵	21504
觶	21505
觷	21506
觹	21507
觺	21508
觻	21509
觼	21510
觽	21511
觾	21512
觿	21513
訃	21514
訄	21515
訅	21516
訆	21517
訉	21518
訋	21519
訌	21520
訏	21521
訐	21522
訒	21523
訔	21524
訙	21525
訚	21526
訜	21527
訞	21528
訹	21529
訽	21530
訿	21531
詀	21532
詁	21533
詂	21534
詃	21535
詄	21536
詅	21537
詇	21538
詉	21539
詊	21540
詋	21541
詌	21542
詍	21543
詎	21544
詏	21545
詑	21546
詒	21547
詓	21548
詖	21549
詗	21550
詘	21551
詙	21552
詚	21553
詜	21554
詝	21555
詟	21556
詤	21557
詥	21558
詧	21559
詨	21560
詪	21561
詯	21562
詴	21563
詵	21564
詶	21565
詸	21566
詺	21567
詻	21568
詽	21569
詿	21570
誀	21571
誁	21572
誟	21573
誢	21574
誧	21575
誩	21576
誫	21577
誮	21578
誯	21579
誱	21580
誳	21581
誴	21582
誵	21583
誶	21584
誷	21585
誸	21586
誺	21587
誻	21588
誽	21589
誾	21590
諀	21591
諁	21592
諂	21593
諃	21594
諅	21595
諆	21596
諈	21597
諉	21598
諊	21599
諌	21600
諍	21601
諐	21602
諑	21603
諓	21604
諔	21605
諕	21606
諘	21607
諚	21608
諛	21609
諞	21610
諠	21611
諢	21612
諤	21613
諿	21614
謃	21615
謅	21616
謆	21617
謈	21618
謉	21619
謋	21620
謌	21621
謍	21622
謏	21623
謑	21624
謒	21625
謓	21626
謕	21627
謖	21628
謘	21629
謚	21630
謜	21631
謞	21632
謟	21633
謡	21634
謢	21635
謦	21636
謧	21637
謪	21638
謫	21639
謭	21640
謮	21641
謰	21642
謱	21643
謲	21644
謳	21645
謴	21646
謵	21647
謶	21648
謷	21649
謸	21650
謺	21651
謼	21652
謽	21653
謿	21654
譀	21655
譃	21656
譄	21657
譅	21658
譆	21659
譡	21660
譢	21661
譤	21662
譥	21663
譧	21664
譨	21665
譩	21666
譪	21667
譫	21668
譭	21669
譮	21670
譱	21671
譳	21672
譵	21673
譶	21674
譸	21675
譹	21676
譺	21677
譻	21678
譼	21679
譾	21680
譿	21681
讁	21682
讂	21683
讃	21684
讄	21685
讆	21686
讇	21687
讈	21688
讌	21689
讍	21690
讎	21691
讏	21692
讑	21693
讒	21694
讔	21695
讕	21696
讗	21697
讙	21698
讜	21699
讝	21700
讟	21701
讠	21702
讬	21703
讱	21704
讻	21705
诇	21706
诌	21707
诎	21708
诐	21709
诓	21710
诖	21711
诹	21712
诼	21713
谂	21714
谇	21715
谉	21716
谖	21717
谝	21718
谞	21719
谫	21720
谰	21721
谳	21722
谸	21723
豙	21724
豛	21725
豜	21726
豝	21727
豞	21728
豟	21729
豠	21730
豣	21731
豤	21732
豥	21733
豦	21734
豨	21735
豩	21736
豭	21737
豮	21738
豯	21739
豰	21740
豱	21741
豲	21742
豴	21743
豵	21744
豶	21745
豷	21746
豻	21747
豼	21748
豽	21749
豾	21750
豿	21751
貀	21752
貁	21753
貃	21754
貄	21755
貆	21756
貊	21757
貋	21758
貎	21759
貐	21760
貑	21761
貒	21762
貕	21763
貖	21764
貗	21765
貙	21766
貚	21767
貛	21768
貜	21769
貣	21770
貥	21771
貦	21772
貭	21773
貮	21774
賋	21775
賌	21776
賎	21777
賏	21778
賐	21779
賒	21780
賔	21781
賕	21782
賖	21783
賗	21784
賘	21785
賙	21786
賚	21787
賛	21788
賝	21789
賟	21790
賥	21791
賧	21792
賨	21793
賩	21794
賫	21795
賯	21796
賰	21797
賱	21798
賲	21799
賳	21800
賶	21801
賷	21802
賹	21803
賻	21804
賾	21805
賿	21806
贀	21807
贁	21808
贂	21809
贃	21810
贄	21811
贆	21812
贉	21813
贋	21814
贌	21815
贎	21816
贳	21817
赆	21818
赇	21819
赕	21820
赙	21821
赱	21822
赲	21823
赸	21824
赹	21825
赻	21826
赼	21827
赽	21828
赾	21829
赿	21830
趀	21831
趂	21832
趃	21833
趄	21834
趆	21835
趇	21836
趈	21837
趉	21838
趌	21839
趍	21840
趎	21841
趏	21842
趐	21843
趑	21844
趒	21845
趓	21846
趔	21847
趖	21848
趗	21849
趘	21850
趚	21851
趛	21852
趜	21853
趝	21854
趡	21855
趢	21856
趤	21857
趦	21858
趧	21859
趩	21860
趪	21861
趫	21862
趬	21863
趭	21864
趮	21865
趯	21866
趰	21867
趱	21868
趲	21869
趷	21870
趻	21871
趼	21872
趽	21873
趿	21874
跀	21875
跅	21876
跇	21877
跈	21878
跉	21879
跊	21880
跍	21881
跐	21882
跒	21883
跓	21884
跞	21885
跫	21886
跬	21887
跽	21888
踅	21889
踇	21890
踈	21891
踋	21892
踍	21893
踎	21894
踑	21895
踓	21896
踔	21897
踕	21898
踖	21899
踗	21900
踘	21901
踙	21902
踚	21903
踛	21904
踜	21905
踠	21906
踣	21907
踤	21908
踥	21909
踦	21910
踧	21911
踨	21912
踫	21913
踬	21914
踭	21915
踰	21916
踲	21917
踳	21918
踶	21919
踷	21920
踸	21921
踺	21922
踼	21923
踿	21924
蹀	21925
蹁	21926
蹃	21927
蹅	21928
蹆	21929
蹌	21930
蹎	21931
蹏	21932
蹐	21933
蹕	21934
蹖	21935
蹗	21936
蹘	21937
蹜	21938
蹝	21939
蹞	21940
蹥	21941
蹧	21942
蹨	21943
蹪	21944
蹫	21945
蹮	21946
蹯	21947
蹰	21948
蹳	21949
躐	21950
躔	21951
躘	21952
躙	21953
躚	21954
躛	21955
躜	21956
躝	21957
躞	21958
躟	21959
躠	21960
躡	21961
躢	21962
躣	21963
躤	21964
躥	21965
躦	21966
躧	21967
躨	21968
躩	21969
躭	21970
躮	21971
躰	21972
躱	21973
躳	21974
躴	21975
躵	21976
躶	21977
躷	21978
躸	21979
躹	21980
躻	21981
躼	21982
躽	21983
躾	21984
躿	21985
軂	21986
軄	21987
軅	21988
軆	21989
軇	21990
軈	21991
軉	21992
軎	21993
軏	21994
軓	21995
軔	21996
軕	21997
軖	21998
軗	21999
軘	22000
軙	22001
軚	22002
軛	22003
軜	22004
軝	22005
軞	22006
軠	22007
軡	22008
軣	22009
軤	22010
輀	22011
輁	22012
輂	22013
輄	22014
輅	22015
輆	22016
輇	22017
輈	22018
輊	22019
輋	22020
輌	22021
輍	22022
輎	22023
輏	22024
輐	22025
輑	22026
輖	22027
輗	22028
輘	22029
輚	22030
輜	22031
輞	22032
輡	22033
輢	22034
輣	22035
輤	22036
輥	22037
輦	22038
輧	22039
輨	22040
輫	22041
輰	22042
輱	22043
輲	22044
輳	22045
輴	22046
輶	22047
輷	22048
輹	22049
輺	22050
輽	22051
轁	22052
轂	22053
轃	22054
轠	22055
轡	22056
轢	22057
轣	22058
轤	22059
轥	22060
轪	22061
轱	22062
轳	22063
轵	22064
轷	22065
轹	22066
轺	22067
轾	22068
辀	22069
辁	22070
辌	22071
辒	22072
辚	22073
辝	22074
辠	22075
辡	22076
辢	22077
辤	22078
辥	22079
辧	22080
辪	22081
辬	22082
辴	22083
辵	22084
辶	22085
辷	22086
辸	22087
辿	22088
迀	22089
迃	22090
迉	22091
迊	22092
迌	22093
迍	22094
迏	22095
迒	22096
迓	22097
迕	22098
迖	22099
迗	22100
迚	22101
迠	22102
迡	22103
迧	22104
迬	22105
迮	22106
迯	22107
迵	22108
迶	22109
迻	22110
迼	22111
迾	22112
迿	22113
逇	22114
逈	22115
逌	22116
逎	22117
逑	22118
逓	22119
逘	22120
逭	22121
逯	22122
遄	22123
遌	22124
遖	22125
遘	22126
遚	22127
遝	22128
遟	22129
遡	22130
遤	22131
遦	22132
遧	22133
遪	22134
遫	22135
遬	22136
遯	22137
遰	22138
遱	22139
遳	22140
遹	22141
遾	22142
邅	22143
邆	22144
邉	22145
邌	22146
邍	22147
邎	22148
邐	22149
邒	22150
邔	22151
邖	22152
邘	22153
邚	22154
邜	22155
邞	22156
邟	22157
邤	22158
邥	22159
邧	22160
邩	22161
邫	22162
邭	22163
邲	22164
邴	22165
邷	22166
邼	22167
邿	22168
郀	22169
郂	22170
郇	22171
郐	22172
郛	22173
郲	22174
郳	22175
郶	22176
郹	22177
郺	22178
郻	22179
郼	22180
郿	22181
鄀	22182
鄁	22183
鄃	22184
鄅	22185
鄆	22186
鄇	22187
鄈	22188
鄊	22189
鄋	22190
鄌	22191
鄍	22192
鄎	22193
鄏	22194
鄐	22195
鄑	22196
鄓	22197
鄕	22198
鄖	22199
鄗	22200
鄘	22201
鄚	22202
鄛	22203
鄝	22204
鄟	22205
鄠	22206
鄡	22207
鄤	22208
鄥	22209
鄦	22210
鄨	22211
鄩	22212
鄪	22213
鄫	22214
鄬	22215
鄮	22216
鄳	22217
鄴	22218
鄵	22219
鄶	22220
鄷	22221
鄸	22222
鄹	22223
鄻	22224
鄼	22225
鄽	22226
鄾	22227
酀	22228
酁	22229
酂	22230
酃	22231
酄	22232
酅	22233
酎	22234
酏	22235
酡	22236
酤	22237
酲	22238
酴	22239
酹	22240
酽	22241
酾	22242
醄	22243
醆	22244
醈	22245
醊	22246
醏	22247
醑	22248
醓	22249
醔	22250
醕	22251
醖	22252
醗	22253
醘	22254
醙	22255
醝	22256
醟	22257
醠	22258
醡	22259
醢	22260
醤	22261
醥	22262
醦	22263
醧	22264
醨	22265
醩	22266
醭	22267
醰	22268
醲	22269
醳	22270
醵	22271
醸	22272
醹	22273
醼	22274
醽	22275
醾	22276
醿	22277
釂	22278
釃	22279
釄	22280
釅	22281
釆	22282
釈	22283
釒	22284
釓	22285
釔	22286
釕	22287
釖	22288
釙	22289
釚	22290
釛	22291
釞	22292
釟	22293
釠	22294
釡	22295
釢	22296
釤	22297
鈁	22298
鈂	22299
鈄	22300
鈇	22301
鈈	22302
鈊	22303
鈋	22304
鈌	22305
鈏	22306
鈐	22307
鈑	22308
鈒	22309
鈓	22310
鈖	22311
鈗	22312
鈘	22313
鈙	22314
鈚	22315
鈛	22316
鈜	22317
鈝	22318
鈟	22319
鈠	22320
鈢	22321
鈤	22322
鈥	22323
鈧	22324
鈨	22325
鈩	22326
鈫	22327
鈬	22328
鈭	22329
鈮	22330
鈯	22331
鈳	22332
鈵	22333
鈷	22334
鈸	22335
鈹	22336
鈻	22337
鈼	22338
鈽	22339
鈿	22340
鉁	22341
鉂	22342
鉃	22343
鉡	22344
鉢	22345
鉣	22346
鉦	22347
鉧	22348
鉨	22349
鉩	22350
鉪	22351
鉫	22352
鉬	22353
鉭	22354
鉮	22355
鉯	22356
鉰	22357
鉱	22358
鉲	22359
鉳	22360
鉵	22361
鉶	22362
鉷	22363
鉸	22364
鉹	22365
鉺	22366
鉼	22367
鉽	22368
鉾	22369
鉿	22370
銁	22371
銂	22372
銄	22373
銆	22374
銇	22375
銈	22376
銌	22377
銎	22378
銐	22379
銒	22380
銔	22381
銙	22382
銚	22383
銝	22384
銞	22385
銟	22386
銠	22387
銡	22388
銢	22389
銣	22390
銤	22391
銥	22392
銦	22393
銧	22394
銨	22395
鋇	22396
鋈	22397
鋉	22398
鋊	22399
鋋	22400
鋌	22401
鋍	22402
鋎	22403
鋏	22404
鋐	22405
鋑	22406
鋓	22407
鋔	22408
鋕	22409
鋖	22410
鋗	22411
鋘	22412
鋚	22413
鋛	22414
鋜	22415
鋝	22416
鋞	22417
鋟	22418
鋠	22419
鋡	22420
鋢	22421
鋣	22422
鋥	22423
鋦	22424
鋧	22425
鋨	22426
鋫	22427
鋬	22428
鋭	22429
鋮	22430
鋯	22431
鋱	22432
鋲	22433
鋳	22434
鋴	22435
鋵	22436
鋶	22437
鋹	22438
鋽	22439
鋾	22440
鋿	22441
錀	22442
錁	22443
錂	22444
錃	22445
錅	22446
錆	22447
錇	22448
錈	22449
錉	22450
錥	22451
錧	22452
錪	22453
錬	22454
錭	22455
錰	22456
錱	22457
錴	22458
錵	22459
錷	22460
錸	22461
錹	22462
錺	22463
錻	22464
錼	22465
錽	22466
錿	22467
鍀	22468
鍁	22469
鍂	22470
鍃	22471
鍄	22472
鍅	22473
鍆	22474
鍇	22475
鍌	22476
鍎	22477
鍏	22478
鍐	22479
鍑	22480
鍒	22481
鍓	22482
鍔	22483
鍕	22484
鍗	22485
鍘	22486
鍙	22487
鍜	22488
鍝	22489
鍞	22490
鍟	22491
鍡	22492
鍢	22493
鍣	22494
鍤	22495
鍦	22496
鍧	22497
鍨	22498
鍩	22499
鍪	22500
鍬	22501
鎇	22502
鎈	22503
鎍	22504
鎎	22505
鎐	22506
鎑	22507
鎓	22508
鎕	22509
鎘	22510
鎙	22511
鎛	22512
鎜	22513
鎝	22514
鎞	22515
鎟	22516
鎠	22517
鎡	22518
鎢	22519
鎣	22520
鎤	22521
鎥	22522
鎦	22523
鎨	22524
鎩	22525
鎪	22526
鎭	22527
鎯	22528
鎰	22529
鎱	22530
鎴	22531
鎵	22532
鎶	22533
鎷	22534
鎹	22535
鎺	22536
鎻	22537
鎼	22538
鎽	22539
鎾	22540
鎿	22541
鏀	22542
鏁	22543
鏂	22544
鏃	22545
鏄	22546
鏆	22547
鏇	22548
鏋	22549
鏌	22550
鏎	22551
鏪	22552
鏫	22553
鏬	22554
鏭	22555
鏮	22556
鏯	22557
鏰	22558
鏱	22559
鏲	22560
鏳	22561
鏴	22562
鏵	22563
鏶	22564
鏷	22565
鏸	22566
鏹	22567
鏺	22568
鏻	22569
鏼	22570
鏿	22571
鐀	22572
鐁	22573
鐂	22574
鐃	22575
鐄	22576
鐅	22577
鐆	22578
鐇	22579
鐈	22580
鐉	22581
鐊	22582
鐋	22583
鐌	22584
鐍	22585
鐎	22586
鐏	22587
鐐	22588
鐑	22589
鐒	22590
鐓	22591
鐔	22592
鐕	22593
鐗	22594
鐙	22595
鐚	22596
鐛	22597
鐜	22598
鐝	22599
鐞	22600
鐟	22601
鐠	22602
鐡	22603
鐢	22604
鐣	22605
鐤	22606
鐥	22607
鐦	22608
鐧	22609
鐨	22610
鐩	22611
鐪	22612
鐫	22613
鐬	22614
鐭	22615
鐾	22616
鑋	22617
鑌	22618
鑍	22619
鑎	22620
鑓	22621
鑔	22622
鑖	22623
鑗	22624
鑘	22625
鑙	22626
鑛	22627
鑜	22628
鑝	22629
鑞	22630
鑟	22631
鑠	22632
鑡	22633
鑢	22634
鑤	22635
鑥	22636
鑦	22637
鑧	22638
鑨	22639
鑩	22640
鑪	22641
鑬	22642
鑭	22643
鑮	22644
鑯	22645
鑱	22646
鑳	22647
鑶	22648
鑷	22649
鑸	22650
鑹	22651
鑺	22652
鑻	22653
钁	22654
钃	22655
钄	22656
钅	22657
钆	22658
钋	22659
钌	22660
钐	22661
钑	22662
钔	22663
钖	22664
钪	22665
钫	22666
钬	22667
钭	22668
钶	22669
钷	22670
钸	22671
铇	22672
铏	22673
铑	22674
铒	22675
铓	22676
铔	22677
铕	22678
铘	22679
铚	22680
铞	22681
铥	22682
铪	22683
铫	22684
铴	22685
铷	22686
铹	22687
铼	22688
铽	22689
锃	22690
锇	22691
锊	22692
锍	22693
锎	22694
锒	22695
锓	22696
锔	22697
锕	22698
锖	22699
锘	22700
锝	22701
锞	22702
锠	22703
锧	22704
锨	22705
锩	22706
锪	22707
锫	22708
锬	22709
锱	22710
锸	22711
锼	22712
锾	22713
锿	22714
镄	22715
镅	22716
镆	22717
镎	22718
镔	22719
镘	22720
镙	22721
镟	22722
镡	22723
镢	22724
镤	22725
镥	22726
镨	22727
镩	22728
镪	22729
镱	22730
閇	22731
閊	22732
閌	22733
閍	22734
閐	22735
閕	22736
閖	22737
閗	22738
閙	22739
閚	22740
閛	22741
閜	22742
閝	22743
閟	22744
閠	22745
閤	22746
閦	22747
閧	22748
閪	22749
閫	22750
閬	22751
閭	22752
閯	22753
閰	22754
閳	22755
閴	22756
閵	22757
閶	22758
閸	22759
閺	22760
閼	22761
閽	22762
閿	22763
闀	22764
闁	22765
闂	22766
闃	22767
闄	22768
闅	22769
闈	22770
闉	22771
闋	22772
闬	22773
闶	22774
阄	22775
阋	22776
阌	22777
阍	22778
阒	22779
阓	22780
阘	22781
阛	22782
阝	22783
阞	22784
阠	22785
阢	22786
阣	22787
阤	22788
阥	22789
阦	22790
阧	22791
阨	22792
阩	22793
阫	22794
阭	22795
阯	22796
阰	22797
阷	22798
阸	22799
阹	22800
阺	22801
阼	22802
阽	22803
阾	22804
陁	22805
陃	22806
陊	22807
陎	22808
陏	22809
陑	22810
陒	22811
陓	22812
陔	22813
陖	22814
陗	22815
陘	22816
陙	22817
陜	22818
陥	22819
陦	22820
陧	22821
陫	22822
陭	22823
陮	22824
陱	22825
陴	22826
陹	22827
陻	22828
陾	22829
陿	22830
隀	22831
隄	22832
隇	22833
隌	22834
隲	22835
隳	22836
隵	22837
隹	22838
隺	22839
隿	22840
雂	22841
雃	22842
雈	22843
雊	22844
雐	22845
雓	22846
雔	22847
雗	22848
雘	22849
雚	22850
雝	22851
雟	22852
雡	22853
雤	22854
雥	22855
雦	22856
雧	22857
雫	22858
雬	22859
雭	22860
雮	22861
雱	22862
雴	22863
雵	22864
雸	22865
雼	22866
雽	22867
雿	22868
霂	22869
霃	22870
霋	22871
霌	22872
霐	22873
霒	22874
霔	22875
霕	22876
霗	22877
霘	22878
霙	22879
霚	22880
霝	22881
霟	22882
霠	22883
霡	22884
霪	22885
靃	22886
靅	22887
靉	22888
靊	22889
靋	22890
靌	22891
靍	22892
靎	22893
靏	22894
靐	22895
靑	22896
靔	22897
靕	22898
靗	22899
靘	22900
靝	22901
靟	22902
靣	22903
靤	22904
靧	22905
靨	22906
靪	22907
靫	22908
靬	22909
靮	22910
靯	22911
靰	22912
靲	22913
靵	22914
靷	22915
靸	22916
靹	22917
靻	22918
靽	22919
靾	22920
靿	22921
鞁	22922
鞂	22923
鞃	22924
鞄	22925
鞆	22926
鞇	22927
鞎	22928
鞐	22929
鞒	22930
鞓	22931
鞔	22932
鞖	22933
鞗	22934
鞙	22935
鞚	22936
鞛	22937
鞜	22938
鞝	22939
鞞	22940
鞯	22941
鞲	22942
鞴	22943
韀	22944
韂	22945
韃	22946
韄	22947
韅	22948
韇	22949
韈	22950
韉	22951
韊	22952
韎	22953
韏	22954
韐	22955
韑	22956
韒	22957
韔	22958
韕	22959
韖	22960
韗	22961
韘	22962
韙	22963
韚	22964
韛	22965
韝	22966
韞	22967
韟	22968
韠	22969
韢	22970
韣	22971
韥	22972
韨	22973
韮	22974
韯	22975
韰	22976
韱	22977
韲	22978
韴	22979
韷	22980
韸	22981
韹	22982
韺	22983
韼	22984
韽	22985
韾	22986
頀	22987
頄	22988
頇	22989
頉	22990
頊	22991
頋	22992
頍	22993
頎	22994
頏	22995
頪	22996
頬	22997
頯	22998
頱	22999
頲	23000
頳	23001
頴	23002
頶	23003
頺	23004
頽	23005
頾	23006
頿	23007
顀	23008
顁	23009
顂	23010
顃	23011
顄	23012
顅	23013
顇	23014
顈	23015
顉	23016
顊	23017
顋	23018
顐	23019
顑	23020
顓	23021
顕	23022
顖	23023
顙	23024
顚	23025
顜	23026
顝	23027
顟	23028
顠	23029
顡	23030
顢	23031
顣	23032
顤	23033
顥	23034
顦	23035
顨	23036
顪	23037
顬	23038
顭	23039
顮	23040
顸	23041
颃	23042
颟	23043
颥	23044
颷	23045
颹	23046
颺	23047
颽	23048
颾	23049
颿	23050
飀	23051
飁	23052
飂	23053
飃	23054
飅	23055
飇	23056
飈	23057
飉	23058
飊	23059
飋	23060
飌	23061
飍	23062
飐	23063
飑	23064
飔	23065
飖	23066
飗	23067
飜	23068
飝	23069
飠	23070
飡	23071
飧	23072
飫	23073
飭	23074
飰	23075
飱	23076
飳	23077
飴	23078
飶	23079
飷	23080
飸	23081
飹	23082
飺	23083
飻	23084
餀	23085
餂	23086
餆	23087
餇	23088
餈	23089
餍	23090
餥	23091
餦	23092
餧	23093
餩	23094
餪	23095
餫	23096
餬	23097
餭	23098
餯	23099
餰	23100
餱	23101
餲	23102
餳	23103
餴	23104
餷	23105
餸	23106
餹	23107
餺	23108
餻	23109
餼	23110
餿	23111
饀	23112
饁	23113
饂	23114
饃	23115
饄	23116
饆	23117
饇	23118
饉	23119
饊	23120
饎	23121
饏	23122
饓	23123
饔	23124
饖	23125
饘	23126
饙	23127
饚	23128
饛	23129
饠	23130
饡	23131
饢	23132
饣	23133
饤	23134
饦	23135
饩	23136
饫	23137
饳	23138
饸	23139
饻	23140
饾	23141
馂	23142
馃	23143
馇	23144
馉	23145
馊	23146
馌	23147
馓	23148
馘	23149
馵	23150
馶	23151
馷	23152
馺	23153
馻	23154
馼	23155
馽	23156
馾	23157
馿	23158
駀	23159
駂	23160
駃	23161
駇	23162
駈	23163
駉	23164
駊	23165
駋	23166
駌	23167
駍	23168
駎	23169
駏	23170
駑	23171
駓	23172
駔	23173
駖	23174
駗	23175
駘	23176
駙	23177
駚	23178
駜	23179
駞	23180
駟	23181
駠	23182
駡	23183
駢	23184
駣	23185
駤	23186
駥	23187
駦	23188
駧	23189
駨	23190
駩	23191
駪	23192
駫	23193
駬	23194
駯	23195
駲	23196
駳	23197
駴	23198
駵	23199
駶	23200
駷	23201
駹	23202
駺	23203
騕	23204
騖	23205
騘	23206
騚	23207
騛	23208
騜	23209
騝	23210
騞	23211
騟	23212
騠	23213
騡	23214
騢	23215
騣	23216
騤	23217
騥	23218
騦	23219
騧	23220
騩	23221
騪	23222
騫	23223
騬	23224
騭	23225
騮	23226
騯	23227
騱	23228
騲	23229
騳	23230
騴	23231
騵	23232
騶	23233
騸	23234
騹	23235
騺	23236
騻	23237
騼	23238
騽	23239
騾	23240
騿	23241
驁	23242
驂	23243
驃	23244
驄	23245
驆	23246
驇	23247
驈	23248
驉	23249
驋	23250
驎	23251
驐	23252
驑	23253
驓	23254
驔	23255
驖	23256
驙	23257
驵	23258
骀	23259
骒	23260
骓	23261
骟	23262
骩	23263
骪	23264
骬	23265
骭	23266
骮	23267
骱	23268
骲	23269
骳	23270
骴	23271
骵	23272
骹	23273
骻	23274
骽	23275
骾	23276
骿	23277
髃	23278
髄	23279
髆	23280
髇	23281
髈	23282
髉	23283
髊	23284
髍	23285
髎	23286
髐	23287
髑	23288
髕	23289
髗	23290
髚	23291
髛	23292
髜	23293
髝	23294
髞	23295
髟	23296
髠	23297
髢	23298
髣	23299
髤	23300
髥	23301
髧	23302
髨	23303
髫	23304
髬	23305
髰	23306
髱	23307
髲	23308
髵	23309
髶	23310
髷	23311
髸	23312
髼	23313
髽	23314
髾	23315
髿	23316
鬀	23317
鬂	23318
鬅	23319
鬇	23320
鬈	23321
鬏	23322
鬩	23323
鬪	23324
鬫	23325
鬬	23326
鬭	23327
鬮	23328
鬯	23329
鬰	23330
鬳	23331
鬴	23332
鬵	23333
鬶	23334
鬷	23335
鬸	23336
鬹	23337
鬺	23338
鬽	23339
鬾	23340
鬿	23341
魀	23342
魆	23343
魈	23344
魊	23345
魋	23346
魌	23347
魎	23348
魐	23349
魒	23350
魓	23351
魕	23352
魖	23353
魙	23354
魜	23355
魞	23356
魠	23357
魡	23358
魤	23359
魦	23360
魧	23361
魩	23362
魪	23363
魬	23364
魰	23365
魱	23366
魲	23367
魴	23368
魵	23369
魶	23370
魸	23371
魹	23372
鮗	23373
鮘	23374
鮙	23375
鮚	23376
鮛	23377
鮝	23378
鮞	23379
鮟	23380
鮠	23381
鮡	23382
鮢	23383
鮣	23384
鮤	23385
鮥	23386
鮧	23387
鮩	23388
鮫	23389
鮯	23390
鮰	23391
鮱	23392
鮲	23393
鮴	23394
鮵	23395
鮶	23396
鮸	23397
鮹	23398
鮻	23399
鮼	23400
鮽	23401
鮾	23402
鮿	23403
鯀	23404
鯁	23405
鯂	23406
鯃	23407
鯄	23408
鯅	23409
鯇	23410
鯈	23411
鯋	23412
鯌	23413
鯍	23414
鯎	23415
鯏	23416
鯐	23417
鯑	23418
鯓	23419
鯔	23420
鯘	23421
鯙	23422
鯚	23423
鯜	23424
鯸	23425
鯹	23426
鯺	23427
鯻	23428
鯼	23429
鯾	23430
鯿	23431
鰀	23432
鰁	23433
鰂	23434
鰃	23435
鰄	23436
鰅	23437
鰆	23438
鰇	23439
鰈	23440
鰉	23441
鰊	23442
鰋	23443
鰌	23444
鰎	23445
鰏	23446
鰐	23447
鰑	23448
鰒	23449
鰔	23450
鰕	23451
鰖	23452
鰗	23453
鰘	23454
鰙	23455
鰚	23456
鰝	23457
鰞	23458
鰡	23459
鰢	23460
鰤	23461
鰥	23462
鰦	23463
鰧	23464
鰨	23465
鰩	23466
鰪	23467
鰫	23468
鰬	23469
鰯	23470
鰰	23471
鰱	23472
鰴	23473
鰵	23474
鰶	23475
鰷	23476
鰸	23477
鰹	23478
鱘	23479
鱙	23480
鱚	23481
鱛	23482
鱜	23483
鱝	23484
鱞	23485
鱟	23486
鱠	23487
鱡	23488
鱢	23489
鱣	23490
鱥	23491
鱦	23492
鱧	23493
鱨	23494
鱩	23495
鱪	23496
鱫	23497
鱭	23498
鱮	23499
鱯	23500
鱰	23501
鱱	23502
鱲	23503
鱴	23504
鱵	23505
鱶	23506
鱹	23507
鱺	23508
鱻	23509
鱽	23510
鱾	23511
鲃	23512
鲆	23513
鲋	23514
鲌	23515
鲐	23516
鲒	23517
鲓	23518
鲔	23519
鲕	23520
鲗	23521
鲘	23522
鲙	23523
鲚	23524
鲝	23525
鲞	23526
鲡	23527
鲣	23528
鲥	23529
鲦	23530
鲩	23531
鲪	23532
鲬	23533
鲭	23534
鲮	23535
鲯	23536
鲰	23537
鲴	23538
鲹	23539
鲺	23540
鲻	23541
鲼	23542
鲽	23543
鲾	23544
鲿	23545
鳀	23546
鳁	23547
鳂	23548
鳆	23549
鳇	23550
鳈	23551
鳉	23552
鳊	23553
鳋	23554
鳎	23555
鳐	23556
鳑	23557
鳓	23558
鳘	23559
鳚	23560
鳠	23561
鳡	23562
鳢	23563
鳣	23564
鳾	23565
鳿	23566
鴀	23567
鴃	23568
鴄	23569
鴅	23570
鴆	23571
鴇	23572
鴈	23573
鴊	23574
鴋	23575
鴌	23576
鴍	23577
鴎	23578
鴏	23579
鴐	23580
鴑	23581
鴓	23582
鴔	23583
鴖	23584
鴗	23585
鴘	23586
鴙	23587
鴚	23588
鴜	23589
鴝	23590
鴟	23591
鴠	23592
鴡	23593
鴢	23594
鴣	23595
鴤	23596
鴥	23597
鴧	23598
鴩	23599
鴪	23600
鴫	23601
鴬	23602
鴭	23603
鴮	23604
鴯	23605
鴰	23606
鴱	23607
鴲	23608
鴵	23609
鴶	23610
鴷	23611
鴸	23612
鴹	23613
鴼	23614
鴽	23615
鴾	23616
鵀	23617
鵂	23618
鵟	23619
鵠	23620
鵢	23621
鵤	23622
鵥	23623
鵦	23624
鵧	23625
鵨	23626
鵩	23627
鵪	23628
鵫	23629
鵭	23630
鵮	23631
鵯	23632
鵱	23633
鵳	23634
鵴	23635
鵵	23636
鵶	23637
鵷	23638
鵸	23639
鵹	23640
鵺	23641
鵻	23642
鵼	23643
鵽	23644
鵿	23645
鶀	23646
鶁	23647
鶂	23648
鶃	23649
鶅	23650
鶆	23651
鶇	23652
鶈	23653
鶉	23654
鶋	23655
鶍	23656
鶎	23657
鶏	23658
鶐	23659
鶒	23660
鶓	23661
鶔	23662
鶕	23663
鶗	23664
鶙	23665
鶚	23666
鶜	23667
鶝	23668
鶞	23669
鶟	23670
鶠	23671
鶢	23672
鶣	23673
鶾	23674
鷀	23675
鷂	23676
鷃	23677
鷅	23678
鷆	23679
鷇	23680
鷈	23681
鷉	23682
鷊	23683
鷋	23684
鷌	23685
鷍	23686
鷎	23687
鷏	23688
鷐	23689
鷑	23690
鷒	23691
鷓	23692
鷔	23693
鷕	23694
鷖	23695
鷘	23696
鷙	23697
鷚	23698
鷛	23699
鷜	23700
鷝	23701
鷟	23702
鷠	23703
鷡	23704
鷢	23705
鷣	23706
鷤	23707
鷥	23708
鷦	23709
鷧	23710
鷨	23711
鷩	23712
鷪	23713
鷬	23714
鷭	23715
鷮	23716
鷯	23717
鷱	23718
鷳	23719
鷵	23720
鷶	23721
鷷	23722
鷸	23723
鷻	23724
鷽	23725
鷾	23726
鷿	23727
鸁	23728
鸂	23729
鸃	23730
鸤	23731
鸧	23732
鸰	23733
鸲	23734
鸴	23735
鸶	23736
鸸	23737
鸹	23738
鸺	23739
鸻	23740
鸼	23741
鹀	23742
鹁	23743
鹆	23744
鹇	23745
鹋	23746
鹍	23747
鹎	23748
鹐	23749
鹒	23750
鹓	23751
鹔	23752
鹖	23753
鹙	23754
鹛	23755
鹝	23756
鹟	23757
鹠	23758
鹡	23759
鹢	23760
鹣	23761
鹥	23762
鹨	23763
鹩	23764
鹪	23765
鹮	23766
鹯	23767
鹱	23768
鹲	23769
鹴	23770
鹶	23771
鹷	23772
鹸	23773
鹺	23774
鹾	23775
麀	23776
麁	23777
麃	23778
麄	23779
麆	23780
麇	23781
麈	23782
麉	23783
麊	23784
麌	23785
麍	23786
麎	23787
麏	23788
麐	23789
麑	23790
麔	23791
麕	23792
麖	23793
麘	23794
麙	23795
麚	23796
麛	23797
麜	23798
麞	23799
麠	23800
麡	23801
麢	23802
麣	23803
麤	23804
麧	23805
麨	23806
麫	23807
黉	23808
黐	23809
黓	23810
黕	23811
黖	23812
黗	23813
黙	23814
黚	23815
黡	23816
黢	23817
黣	23818
黤	23819
黦	23820
黧	23821
黪	23822
黫	23823
黬	23824
黭	23825
黮	23826
黰	23827
黱	23828
黲	23829
黳	23830
黵	23831
黷	23832
黸	23833
黹	23834
黺	23835
黽	23836
黾	23837
黿	23838
鼀	23839
鼁	23840
鼂	23841
鼃	23842
鼄	23843
鼅	23844
鼆	23845
鼉	23846
鼊	23847
鼌	23848
鼍	23849
鼏	23850
鼑	23851
鼒	23852
鼔	23853
鼖	23854
鼗	23855
鼘	23856
鼙	23857
鼚	23858
鼛	23859
鼝	23860
鼞	23861
鼟	23862
鼡	23863
鼢	23864
鼣	23865
鼥	23866
鼦	23867
鼧	23868
鼨	23869
鼩	23870
鼪	23871
鼫	23872
鼭	23873
鼮	23874
鼯	23875
鼰	23876
鼱	23877
鼲	23878
鼷	23879
鼽	23880
齄	23881
齑	23882
齖	23883
齘	23884
齙	23885
齛	23886
齜	23887
齝	23888
齞	23889
齟	23890
齠	23891
齤	23892
齥	23893
齧	23894
齨	23895
齩	23896
齪	23897
齫	23898
齬	23899
齭	23900
齮	23901
齯	23902
齲	23903
齳	23904
齴	23905
齵	23906
齶	23907
齷	23908
齸	23909
齹	23910
齺	23911
齻	23912
齼	23913
齽	23914
齾	23915
龀	23916
龁	23917
龃	23918
龆	23919
龇	23920
龉	23921
龎	23922
[...]
